[PAD]	0
[UNK]	0
[BOS]	0
[EOS]	0
。	0
，	0
、	0
！	0
？	0
；	0
：	0
“	0
”	0
‘	0
’	0
（	0
）	0
【	0
】	0
《	0
》	0
『	0
』	0
「	0
」	0
〔	0
〕	0
…	0
—	0
～	0
·	0
．	0
.	0
,	0
!	0
?	0
;	0
:	0
"	0
'	0
(	0
)	0
[	0
]	0
{	0
}	0
<	0
>	0
/	0
\	0
|	0
-	0
_	0
=	0
+	0
@	0
#	0
$	0
%	0
^	0
&	0
*	0
×	0
÷	0
±	0
≠	0
≈	0
≡	0
≤	0
≥	0
≦	0
≧	0
≪	0
≫	0
∝	0
∞	0
∈	0
∉	0
⊂	0
⊃	0
⊆	0
⊇	0
∪	0
∩	0
∅	0
∀	0
∃	0
¬	0
∧	0
∨	0
⊕	0
⊗	0
⊥	0
∥	0
∠	0
α	0
β	0
γ	0
δ	0
ε	0
ζ	0
η	0
θ	0
ι	0
κ	0
λ	0
μ	0
ν	0
ξ	0
ο	0
π	0
ρ	0
σ	0
τ	0
υ	0
φ	0
χ	0
ψ	0
ω	0
Α	0
Β	0
Γ	0
Δ	0
Ε	0
Ζ	0
Η	0
Θ	0
Ι	0
Κ	0
Λ	0
Μ	0
Ν	0
Ξ	0
Ο	0
Π	0
Ρ	0
Σ	0
Τ	0
Υ	0
Φ	0
Χ	0
Ψ	0
Ω	0
∑	0
∏	0
∫	0
∬	0
∭	0
∮	0
∯	0
∰	0
∇	0
∂	0
∆	0
√	0
∛	0
∜	0
‰	0
‱	0
→	0
←	0
↑	0
↓	0
↔	0
↕	0
⇒	0
⇐	0
⇔	0
↦	0
↣	0
↪	0
↩	0
⇀	0
⇁	0
￥	0
＄	0
€	0
£	0
¥	0
₩	0
₽	0
₹	0
¢	0
¤	0
°	0
℃	0
℉	0
㎜	0
㎝	0
㎞	0
㎡	0
㎥	0
㎏	0
㏄	0
㏑	0
㏒	0
µ	0
Å	0
Ω	0
♂	0
♀	0
⚥	0
☿	0
♁	0
♃	0
♄	0
♅	0
♆	0
♇	0
♈	0
♉	0
♊	0
♋	0
♌	0
♍	0
♎	0
♏	0
♐	0
♑	0
♒	0
♓	0
■	0
□	0
▲	0
△	0
▼	0
▽	0
◆	0
◇	0
●	0
○	0
★	0
☆	0
♠	0
♣	0
♥	0
♦	0
零	0
壹	0
贰	0
叁	0
肆	0
伍	0
陆	0
柒	0
捌	0
玖	0
拾	0
佰	0
仟	0
萬	0
億	0
甲	0
乙	0
丙	0
丁	0
戊	0
己	0
庚	0
辛	0
壬	0
癸	0
子	0
丑	0
寅	0
卯	0
辰	0
巳	0
午	0
未	0
申	0
酉	0
戌	0
亥	0
©	0
®	0
™	0
§	0
¶	0
†	0
‡	0
※	0
№	0
♯	0
一个	-0
中国	-1
美国	-2
er	-3
an	-4
人口	-5
位于	-6
in	-7
on	-8
or	-9
政府	-10
大学	-11
地区	-12
公司	-13
使用	-14
ar	-15
国家	-16
日本	-17
成为	-18
en	-19
包括	-20
开始	-21
可以	-22
平方	-23
以及	-24
进行	-25
第一	-26
公里	-27
的一	-28
香港	-29
其中	-30
人民	-31
的一个	-32
la	-33
面积	-34
部分	-35
台湾	-36
世界	-37
获得	-38
主要	-39
研究	-40
他们	-41
没有	-42
历史	-43
认为	-44
运动	-45
al	-46
代表	-47
其他	-48
是一	-49
委员	-50
第二	-51
es	-52
法国	-53
政治	-54
行政	-55
at	-56
由于	-57
▁在	-58
电影	-59
ic	-60
工作	-61
▁S	-62
is	-63
国际	-64
因此	-65
同时	-66
中心	-67
作为	-68
市镇	-69
中华	-70
可能	-71
系统	-72
因为	-73
担任	-74
之后	-75
车站	-76
表示	-77
电视	-78
英国	-79
当时	-80
中的	-81
时间	-82
▁C	-83
通过	-84
他的	-85
发展	-86
根据	-87
共和	-88
it	-89
成立	-90
el	-91
期间	-92
设计	-93
之一	-94
社会	-95
学院	-96
建筑	-97
发现	-98
平方公里	-99
▁M	-100
属于	-101
参加	-102
比赛	-103
这些	-104
铁路	-105
游戏	-106
组织	-107
中央	-108
主义	-109
不同	-110
影响	-111
音乐	-112
委员会	-113
称为	-114
文化	-115
世纪	-116
le	-117
共和国	-118
he	-119
for	-120
计划	-121
mu	-122
经济	-123
年的	-124
所有	-125
ro	-126
罗斯	-127
年代	-128
活动	-129
提供	-130
出现	-131
城市	-132
学校	-133
作品	-134
正式	-135
管理	-136
▁A	-137
re	-138
之间	-139
发生	-140
德国	-141
利亚	-142
时期	-143
am	-144
最终	-145
us	-146
il	-147
后来	-148
这个	-149
最后	-150
成员	-151
上的	-152
教育	-153
当地	-154
负责	-155
进入	-156
as	-157
▁P	-158
问题	-159
尼亚	-160
▁T	-161
第三	-162
也是	-163
许多	-164
单位	-165
▁B	-166
ol	-167
全国	-168
mula	-169
服务	-170
ion	-171
支持	-172
formula	-173
名为	-174
生活	-175
ch	-176
制作	-177
人的	-178
一些	-179
战争	-180
以下	-181
宣布	-182
北京	-183
大的	-184
工程	-185
已经	-186
联合	-187
发行	-188
关系	-189
参与	-190
▁t	-191
et	-192
上海	-193
地方	-194
足球	-195
事件	-196
举行	-197
节目	-198
人物	-199
决定	-200
千米	-201
俄罗斯	-202
重要	-203
两个	-204
方面	-205
保护	-206
▁生	-207
同年	-208
加入	-209
总统	-210
民国	-211
人民共和国	-212
ou	-213
北部	-214
学家	-215
学生	-216
技术	-217
到了	-218
目前	-219
印度	-220
会议	-221
冠军	-222
为了	-223
列车	-224
分别	-225
欧洲	-226
de	-227
▁L	-228
斯特	-229
系列	-230
分布	-231
ac	-232
的人	-233
平方千米	-234
中华人民共和国	-235
建立	-236
需要	-237
完成	-238
设有	-239
最高	-240
要求	-241
是在	-242
专辑	-243
om	-244
独立	-245
组成	-246
▁H	-247
来自	-248
成功	-249
南部	-250
情况	-251
ing	-252
例如	-253
存在	-254
选举	-255
自由	-256
导致	-257
了一	-258
海拔	-259
拥有	-260
st	-261
▁R	-262
密度	-263
开发	-264
交通	-265
用于	-266
ig	-267
虽然	-268
艺术	-269
然而	-270
▁历史	-271
通常	-272
▁生平	-273
相关	-274
并且	-275
共有	-276
采用	-277
▁G	-278
前往	-279
zh	-280
受到	-281
人员	-282
集团	-283
合作	-284
联盟	-285
方式	-286
国民	-287
他在	-288
下辖	-289
▁D	-290
出版	-291
学名	-292
二十	-293
克兰	-294
特别	-295
提出	-296
产生	-297
的大	-298
球队	-299
这一	-300
毕业	-301
个人	-302
但是	-303
首次	-304
这种	-305
生产	-306
是一个	-307
具有	-308
高度	-309
ed	-310
并在	-311
结构	-312
人口密度	-313
民主	-314
部队	-315
联赛	-316
结束	-317
行星	-318
数据	-319
此外	-320
un	-321
主席	-322
主教	-323
地理	-324
项目	-325
控制	-326
行政区	-327
接受	-328
阿尔	-329
海军	-330
▁F	-331
继续	-332
形成	-333
角色	-334
出生	-335
歌曲	-336
有一	-337
and	-338
对于	-339
ur	-340
任何	-341
一般	-342
时代	-343
西亚	-344
故事	-345
造成	-346
取得	-347
增加	-348
中共	-349
行动	-350
机构	-351
乌克兰	-352
无法	-353
航空	-354
领导	-355
ent	-356
of	-357
附近	-358
年至	-359
革命	-360
帝国	-361
区的	-362
面积为	-363
的是	-364
超过	-365
语言	-366
科学	-367
结果	-368
军事	-369
另外	-370
韩国	-371
新闻	-372
▁本	-373
罗马	-374
动物	-375
发布	-376
不过	-377
大利	-378
一直	-379
ra	-380
女性	-381
ow	-382
内的	-383
▁I	-384
调查	-385
是位于	-386
传统	-387
随后	-388
得到	-389
id	-390
媒体	-391
物种	-392
机场	-393
就是	-394
▁W	-395
小时	-396
的时	-397
之前	-398
居民	-399
运动员	-400
数量	-401
所以	-402
父亲	-403
安全	-404
纪念	-405
范围	-406
西班	-407
平均	-408
内容	-409
过程	-410
区域	-411
西班牙	-412
十二	-413
除了	-414
来的	-415
经过	-416
公园	-417
ia	-418
如果	-419
重新	-420
os	-421
克斯	-422
有限	-423
位置	-424
发表	-425
创作	-426
公路	-427
一种	-428
标准	-429
工业	-430
ot	-431
属的	-432
只有	-433
共产	-434
建设	-435
有关	-436
现在	-437
苏联	-438
▁N	-439
反应	-440
演员	-441
▁E	-442
军队	-443
版本	-444
赛事	-445
反对	-446
环境	-447
中华民国	-448
现代	-449
是由	-450
议会	-451
名的	-452
台北	-453
出的	-454
行为	-455
um	-456
法院	-457
联邦	-458
区为	-459
名称	-460
协会	-461
书记	-462
非常	-463
举办	-464
美元	-465
体育	-466
ad	-467
民族	-468
公开	-469
编码	-470
第四	-471
最佳	-472
小行星	-473
共同	-474
资料	-475
指挥	-476
我们	-477
设立	-478
格兰	-479
中学	-480
ter	-481
改为	-482
管辖	-483
选择	-484
企业	-485
尔斯	-486
植物	-487
议员	-488
一起	-489
im	-490
直接	-491
教授	-492
生物	-493
▁of	-494
中国大	-495
距离	-496
主任	-497
自治	-498
职业	-499
形式	-500
部长	-501
处理	-502
日在	-503
并于	-504
运动会	-505
大量	-506
小说	-507
决赛	-508
地的	-509
包含	-510
也有	-511
▁地理	-512
od	-513
战斗	-514
时的	-515
新的	-516
家庭	-517
并不	-518
方法	-519
分为	-520
年间	-521
显示	-522
东北	-523
政策	-524
法律	-525
iv	-526
完全	-527
执行	-528
报告	-529
直到	-530
利用	-531
多数	-532
都是	-533
ir	-534
医院	-535
将军	-536
再次	-537
自然	-538
另一	-539
动画	-540
市场	-541
这是	-542
家族	-543
三年	-544
还有	-545
银行	-546
甚至	-547
必须	-548
关于	-549
意大利	-550
街道	-551
性的	-552
热带	-553
生涯	-554
该国	-555
ec	-556
后的	-557
大会	-558
团体	-559
政治人物	-560
省份	-561
它们	-562
广东	-563
亚洲	-564
斯坦	-565
以来	-566
文学	-567
▁the	-568
境内	-569
学习	-570
▁K	-571
官方	-572
尽管	-573
海拔高度	-574
朝鲜	-575
下的	-576
为主	-577
的一个市镇	-578
理论	-579
类似	-580
商业	-581
是一种	-582
约翰	-583
当中	-584
文物	-585
人类	-586
基础	-587
普查	-588
建于	-589
拍摄	-590
之间的	-591
死亡	-592
公共	-593
纪录	-594
东部	-595
全球	-596
实际	-597
能力	-598
希望	-599
▁人口	-600
西部	-601
加拿	-602
制造	-603
指出	-604
阿拉	-605
路线	-606
早期	-607
▁大	-608
离开	-609
攻击	-610
外交	-611
的地	-612
功能	-613
▁c	-614
博物	-615
基本	-616
严重	-617
最初	-618
行政区划	-619
演出	-620
▁该	-621
作用	-622
表现	-623
任务	-624
能够	-625
ation	-626
op	-627
编码为	-628
去世	-629
▁s	-630
纽约	-631
描述	-632
十一	-633
han	-634
其后	-635
空间	-636
接壤	-637
于是	-638
解放	-639
她的	-640
共产党	-641
事务	-642
th	-643
曾经	-644
规模	-645
分布于	-646
奥林	-647
将其	-648
推出	-649
不是	-650
ta	-651
号线	-652
夏季	-653
东南	-654
设施	-655
马来	-656
统治	-657
一次	-658
三个	-659
广播	-660
方向	-661
▁根据	-662
定的	-663
计算	-664
大区	-665
单曲	-666
太平	-667
加拿大	-668
进士	-669
东京	-670
公布	-671
浙江	-672
te	-673
主持	-674
达到	-675
月台	-676
持续	-677
锦标	-678
奥林匹	-679
广州	-680
博物馆	-681
年在	-682
年人口	-683
太阳	-684
透过	-685
有限公司	-686
唯一	-687
巴士	-688
国王	-689
各种	-690
▁d	-691
而且	-692
宗教	-693
合并	-694
蒙古	-695
播出	-696
开放	-697
被称为	-698
原因	-699
不能	-700
赛季	-701
当选	-702
里斯	-703
西北	-704
ul	-705
年度	-706
仍然	-707
变化	-708
产品	-709
化学	-710
第一次	-711
奥林匹克	-712
▁与	-713
模式	-714
目标	-715
实验	-716
▁O	-717
拉斯	-718
连接	-719
山东	-720
排名	-721
训练	-722
人士	-723
▁J	-724
IN	-725
道路	-726
ag	-727
西南	-728
▁p	-729
逐渐	-730
专业	-731
的主	-732
相当	-733
四年	-734
演唱	-735
风格	-736
不同的	-737
在此	-738
使得	-739
br	-740
网络	-741
尔省	-742
规定	-743
▁的	-744
办公	-745
者的	-746
澳门	-747
一样	-748
oc	-749
ay	-750
他们的	-751
球员	-752
em	-753
为人	-754
越南	-755
应用	-756
恢复	-757
发动	-758
乐部	-759
母亲	-760
一名	-761
希腊	-762
定义	-763
俱乐部	-764
导演	-765
青年	-766
镇区	-767
高速	-768
歌手	-769
成绩	-770
击败	-771
部门	-772
社区	-773
奥运	-774
细胞	-775
最大	-776
阶段	-777
相同	-778
司令	-779
轨道	-780
等人	-781
设置	-782
建造	-783
飞机	-784
总人口	-785
▁V	-786
批评	-787
这样	-788
投资	-789
年起	-790
背景	-791
列表	-792
ip	-793
南京	-794
不会	-795
维尔	-796
博士	-797
命名	-798
基督	-799
▁阿	-800
土地	-801
爆发	-802
四川	-803
两人	-804
第五	-805
简称	-806
ie	-807
igh	-808
学者	-809
年后	-810
人口普查	-811
身份	-812
城区	-813
TC	-814
制度	-815
的一部分	-816
分钟	-817
记载	-818
地下	-819
帮助	-820
ub	-821
战役	-822
的新	-823
很多	-824
▁行政区划	-825
ap	-826
全部	-827
整个	-828
但在	-829
电视台	-830
年美国	-831
伦敦	-832
不久	-833
警察	-834
改革	-835
名字	-836
机车	-837
大战	-838
广场	-839
评论	-840
贝尔	-841
群岛	-842
的特	-843
中部	-844
漫画	-845
汽车	-846
速度	-847
三十	-848
▁b	-849
大部分	-850
第十	-851
任命	-852
分析	-853
连续	-854
飞行	-855
斯科	-856
平台	-857
葡萄	-858
建议	-859
立法	-860
英语	-861
资格	-862
尔德	-863
贸易	-864
第二次	-865
公尺	-866
分类	-867
规划	-868
▁马	-869
▁m	-870
地球	-871
然后	-872
网站	-873
锦标赛	-874
作家	-875
信息	-876
天主教	-877
先后	-878
的主要	-879
男性	-880
记录	-881
福建	-882
杂志	-883
多的	-884
SE	-885
是法国	-886
领域	-887
表演	-888
奥林匹克运动会	-889
河南	-890
流行	-891
等地	-892
科技	-893
赢得	-894
▁de	-895
条件	-896
此后	-897
og	-898
遭到	-899
车辆	-900
引起	-901
地区的	-902
毫米	-903
比亚	-904
玩家	-905
武器	-906
则是	-907
出任	-908
美洲	-909
同样	-910
大约	-911
日至	-912
影片	-913
业务	-914
拒绝	-915
五年	-916
经常	-917
保持	-918
运输	-919
减少	-920
ce	-921
曾任	-922
水域	-923
取代	-924
经营	-925
居住	-926
以上	-927
波兰	-928
处于	-929
或者	-930
获得了	-931
多次	-932
截至	-933
物理	-934
最早	-935
人们	-936
学位	-937
出生于	-938
元年	-939
ov	-940
线的	-941
宣传	-942
统计	-943
争议	-944
ard	-945
设备	-946
经历	-947
内部	-948
图书	-949
协助	-950
教堂	-951
记者	-952
荷兰	-953
明朝	-954
改变	-955
ers	-956
发射	-957
过去	-958
多个	-959
一步	-960
农业	-961
州市	-962
长的	-963
线路	-964
av	-965
栖息	-966
夏令	-967
官员	-968
天津	-969
状态	-970
每年	-971
英文	-972
视为	-973
▁formula	-974
实施	-975
ut	-976
有的	-977
第一个	-978
国会	-979
位于该国	-980
限制	-981
ill	-982
儿童	-983
日起	-984
实现	-985
最大的	-986
类型	-987
的情况	-988
伊斯	-989
几乎	-990
左右	-991
治疗	-992
中文	-993
广泛	-994
占领	-995
是位于美国	-996
比较	-997
参赛	-998
频道	-999
澳大	-1000
长期	-1001
的影响	-1002
准备	-1003
地铁	-1004
下辖的一个	-1005
被认为	-1006
运行	-1007
作战	-1008
州的	-1009
塞尔	-1010
电视剧	-1011
巴黎	-1012
年夏季	-1013
病毒	-1014
总面积	-1015
兄弟	-1016
及其	-1017
回到	-1018
展开	-1019
协议	-1020
国的	-1021
城镇	-1022
相对	-1023
马来西亚	-1024
威廉	-1025
还是	-1026
加坡	-1027
又称	-1028
袭击	-1029
的时区为	-1030
概念	-1031
邮政	-1032
体的	-1033
统一	-1034
来源	-1035
基于	-1036
ak	-1037
而在	-1038
个月	-1039
二年	-1040
曾在	-1041
饰演	-1042
文物保护	-1043
部份	-1044
生于	-1045
教会	-1046
之外	-1047
该地	-1048
评价	-1049
UTC	-1050
大型	-1051
县的	-1052
原本	-1053
万人	-1054
出了	-1055
和平	-1056
新加坡	-1057
空军	-1058
天文	-1059
的前	-1060
娱乐	-1061
自动	-1062
旅游	-1063
资源	-1064
不少	-1065
ang	-1066
犹太	-1067
运营	-1068
▁U	-1069
澳大利亚	-1070
太平洋	-1071
组合	-1072
ST	-1073
负责管辖	-1074
综合	-1075
加上	-1076
所在	-1077
大楼	-1078
解决	-1079
斯的	-1080
破坏	-1081
面的	-1082
文物保护单位	-1083
ne	-1084
交易	-1085
舰队	-1086
剧情	-1087
ri	-1088
清朝	-1089
会在	-1090
是中国	-1091
省的一个市镇	-1092
选手	-1093
返回	-1094
至今	-1095
江苏	-1096
铁道	-1097
精神	-1098
英格兰	-1099
它的	-1100
河流	-1101
试图	-1102
▁圣	-1103
进一步	-1104
名单	-1105
基地	-1106
改编	-1107
超级	-1108
▁于	-1109
▁政治	-1110
每个	-1111
元素	-1112
主角	-1113
随著	-1114
高级	-1115
一位	-1116
小学	-1117
的数据	-1118
省级	-1119
继承	-1120
国立	-1121
出身	-1122
女儿	-1123
初期	-1124
唱片	-1125
▁in	-1126
皇帝	-1127
集中	-1128
报道	-1129
维亚	-1130
六年	-1131
同意	-1132
确定	-1133
进攻	-1134
星期	-1135
编号	-1136
方案	-1137
卡尔	-1138
第六	-1139
进行了	-1140
基金	-1141
针对	-1142
国防	-1143
产业	-1144
兴建	-1145
观众	-1146
解放军	-1147
ab	-1148
总理	-1149
正在	-1150
投票	-1151
程序	-1152
是否	-1153
普通	-1154
研究所	-1155
维持	-1156
▁由于	-1157
一年	-1158
云南	-1159
国内	-1160
气候	-1161
斯基	-1162
下辖以下	-1163
乔治	-1164
▁年	-1165
所属的	-1166
重要的	-1167
特征	-1168
秘书	-1169
机会	-1170
为每	-1171
西省	-1172
湖南	-1173
解释	-1174
证明	-1175
▁w	-1176
不断	-1177
力量	-1178
德里	-1179
收入	-1180
首都	-1181
ell	-1182
是指	-1183
ob	-1184
了一个	-1185
皇家	-1186
奥斯	-1187
下的一个	-1188
小组	-1189
人口数量	-1190
机关	-1191
公元	-1192
上映	-1193
价值	-1194
以色	-1195
巴西	-1196
拉克	-1197
的一种	-1198
大多数	-1199
II	-1200
有效	-1201
条约	-1202
年被	-1203
年美国人口普查	-1204
ist	-1205
大使	-1206
有时	-1207
以色列	-1208
议院	-1209
年轻	-1210
好的	-1211
ine	-1212
殖民	-1213
总部	-1214
The	-1215
批准	-1216
双方	-1217
二世	-1218
乐团	-1219
Ch	-1220
程度	-1221
▁St	-1222
临时	-1223
少年	-1224
冲突	-1225
nd	-1226
感染	-1227
医疗	-1228
县的一个	-1229
重建	-1230
合物	-1231
人在	-1232
取消	-1233
思想	-1234
武装	-1235
董事	-1236
随着	-1237
氧化	-1238
国务	-1239
尔的	-1240
都会	-1241
国民党	-1242
风暴	-1243
主题	-1244
公民	-1245
法兰	-1246
著名	-1247
讨论	-1248
日军	-1249
快速	-1250
▁新	-1251
常见	-1252
如下	-1253
有些	-1254
▁李	-1255
不再	-1256
投入	-1257
乡镇	-1258
访问	-1259
年开始	-1260
非洲	-1261
隶属于	-1262
从事	-1263
力的	-1264
保留	-1265
半岛	-1266
▁and	-1267
允许	-1268
斯克	-1269
委会	-1270
邀请	-1271
西洋	-1272
承认	-1273
文件	-1274
引发	-1275
可达	-1276
山脉	-1277
卫生	-1278
胜利	-1279
图书馆	-1280
测试	-1281
尔特	-1282
选区	-1283
无线	-1284
至少	-1285
路易	-1286
中国人民	-1287
停止	-1288
建成	-1289
ens	-1290
以后	-1291
ind	-1292
销售	-1293
▁f	-1294
王国	-1295
主演	-1296
教区	-1297
宪法	-1298
结婚	-1299
在美国	-1300
化的	-1301
财政	-1302
材料	-1303
海岸	-1304
都有	-1305
的市镇	-1306
核心	-1307
人数	-1308
位于法国	-1309
使用的	-1310
著作	-1311
地位	-1312
函数	-1313
王朝	-1314
调整	-1315
高中	-1316
▁这	-1317
接近	-1318
卢瓦	-1319
市长	-1320
世界大战	-1321
下辖以下地区	-1322
收录	-1323
应该	-1324
起来	-1325
是美国	-1326
阿拉伯	-1327
结合	-1328
不可	-1329
高等	-1330
观察	-1331
all	-1332
考虑	-1333
用的	-1334
▁车站	-1335
安排	-1336
十分	-1337
遗址	-1338
创立	-1339
公分	-1340
并没有	-1341
支援	-1342
SEE	-1343
联合国	-1344
St	-1345
马克	-1346
民众	-1347
现时	-1348
用来	-1349
art	-1350
伯特	-1351
在这	-1352
目的	-1353
自治区	-1354
前的	-1355
祖父	-1356
球场	-1357
新增	-1358
电脑	-1359
用户	-1360
是下辖的一个	-1361
逝世	-1362
毕业于	-1363
人民政府	-1364
气象	-1365
一世	-1366
团队	-1367
事业	-1368
健康	-1369
就读	-1370
编辑	-1371
到达	-1372
比利	-1373
中国共产党	-1374
说法	-1375
士兵	-1376
米尔	-1377
质量	-1378
里的	-1379
时任	-1380
INSEE	-1381
西方	-1382
只是	-1383
色的	-1384
移动	-1385
再度	-1386
日的	-1387
明显	-1388
▁行政	-1389
政党	-1390
模型	-1391
战后	-1392
物质	-1393
地利	-1394
此时	-1395
第七	-1396
金属	-1397
关注	-1398
为法国	-1399
尤其	-1400
直至	-1401
七年	-1402
est	-1403
一带	-1404
他曾	-1405
威尔	-1406
表达	-1407
ok	-1408
旧市镇	-1409
安德	-1410
命令	-1411
总督	-1412
葡萄牙	-1413
过程中	-1414
佛教	-1415
如此	-1416
因而	-1417
警方	-1418
知道	-1419
ice	-1420
尼斯	-1421
每平方公里	-1422
SA	-1423
电台	-1424
市的	-1425
入侵	-1426
构成	-1427
办公室	-1428
外的	-1429
重点	-1430
ich	-1431
现场	-1432
西哥	-1433
if	-1434
或是	-1435
市区	-1436
▁下	-1437
伊斯兰	-1438
变成	-1439
创办	-1440
的小	-1441
各地	-1442
奥地利	-1443
移民	-1444
禁止	-1445
少数	-1446
ph	-1447
文章	-1448
出口	-1449
十年	-1450
瑞典	-1451
io	-1452
会的	-1453
河北	-1454
大臣	-1455
稳定	-1456
相似	-1457
交流	-1458
ess	-1459
课程	-1460
森林	-1461
姆斯	-1462
接壤的市镇	-1463
▁小行星	-1464
来说	-1465
提名	-1466
人口数量为人	-1467
高雄	-1468
周边	-1469
不明	-1470
县人	-1471
的时候	-1472
邮政编码为	-1473
中山	-1474
医学	-1475
ran	-1476
消息	-1477
共有人口	-1478
朋友	-1479
的研究	-1480
入口	-1481
墨西哥	-1482
▁王	-1483
恒星	-1484
状况	-1485
生长	-1486
羽毛	-1487
qu	-1488
为一	-1489
现象	-1490
ud	-1491
NA	-1492
的首	-1493
建制	-1494
客运	-1495
信号	-1496
抵达	-1497
月至	-1498
机械	-1499
学术	-1500
候选	-1501
提升	-1502
行政单位	-1503
隧道	-1504
提高	-1505
职务	-1506
联系	-1507
同一	-1508
人口密度每平方公里	-1509
up	-1510
两种	-1511
卫星	-1512
而是	-1513
列为	-1514
科的	-1515
高的	-1516
蛋白	-1517
东西	-1518
夏令时	-1519
看到	-1520
八年	-1521
ian	-1522
尔兰	-1523
失去	-1524
意识	-1525
效力	-1526
也在	-1527
tion	-1528
某些	-1529
酒店	-1530
自行	-1531
避免	-1532
一同	-1533
ik	-1534
▁Ch	-1535
动力	-1536
工厂	-1537
ge	-1538
更名为	-1539
亚历	-1540
是一名	-1541
人口密度为每	-1542
只能	-1543
一度	-1544
报导	-1545
挑战	-1546
可能是	-1547
ight	-1548
操作	-1549
南北	-1550
得以	-1551
AT	-1552
数字	-1553
市镇编码为	-1554
校长	-1555
身体	-1556
是一位	-1557
级行政单位	-1558
政权	-1559
翻译	-1560
仪式	-1561
瑞士	-1562
时的人口数量为人	-1563
队的	-1564
或旧市镇	-1565
案件	-1566
广告	-1567
注意	-1568
播放	-1569
特的	-1570
特殊	-1571
地震	-1572
从而	-1573
乡镇级行政单位	-1574
台南	-1575
威胁	-1576
体系	-1577
该省份	-1578
程式	-1579
重庆	-1580
维奇	-1581
▁布	-1582
军的	-1583
失败	-1584
历史上	-1585
不得	-1586
始建于	-1587
普遍	-1588
该省份为法国	-1589
意义	-1590
北美	-1591
选区为	-1592
水平	-1593
的方式	-1594
当局	-1595
表明	-1596
不足	-1597
当时的	-1598
感到	-1599
全长	-1600
对手	-1601
撤销	-1602
召开	-1603
发电	-1604
海域	-1605
有人	-1606
河畔	-1607
所属的省级	-1608
所属的省级选区为	-1609
公众	-1610
营运	-1611
彼得	-1612
埃尔	-1613
▁l	-1614
采取	-1615
伊朗	-1616
克里	-1617
事实	-1618
南极	-1619
的原	-1620
菲律	-1621
欢迎	-1622
平方米	-1623
估计	-1624
菲律宾	-1625
是下辖的一个乡镇级行政单位	-1626
著名的	-1627
发起	-1628
人大	-1629
ong	-1630
民主党	-1631
数学	-1632
uc	-1633
和其他	-1634
生命	-1635
出战	-1636
后者	-1637
成立于	-1638
届全国	-1639
他是	-1640
市民	-1641
金融	-1642
药物	-1643
拉夫	-1644
爱尔兰	-1645
达成	-1646
资讯	-1647
海洋	-1648
tw	-1649
里亚	-1650
四个	-1651
工人	-1652
成为了	-1653
国务院	-1654
方的	-1655
大道	-1656
给予	-1657
▁此	-1658
创造	-1659
品牌	-1660
外国	-1661
早年	-1662
权力	-1663
九年	-1664
是日本	-1665
受伤	-1666
哈尔	-1667
澳洲	-1668
ev	-1669
公主	-1670
教练	-1671
的第一	-1672
的一座	-1673
代表团	-1674
介绍	-1675
最后一	-1676
大西洋	-1677
sh	-1678
并非	-1679
其余	-1680
体长	-1681
年底	-1682
安徽	-1683
什么	-1684
▁西	-1685
平面	-1686
年夏季奥林匹克运动会	-1687
确诊	-1688
年和	-1689
eg	-1690
缺乏	-1691
购买	-1692
冬季	-1693
字母	-1694
的第	-1695
知识	-1696
▁张	-1697
旅客	-1698
迅速	-1699
也被	-1700
▁陈	-1701
观点	-1702
斯塔	-1703
输入	-1704
又名	-1705
处的	-1706
强烈	-1707
传播	-1708
措施	-1709
学会	-1710
▁v	-1711
竞争	-1712
年美国人口普查的数据	-1713
安装	-1714
BA	-1715
夺得	-1716
入选	-1717
人口密度为每平方千米	-1718
当地共有人口	-1719
发出	-1720
而人口密度为每平方千米	-1721
现任	-1722
▁卡	-1723
也会	-1724
规则	-1725
TV	-1726
其它	-1727
网路	-1728
电力	-1729
喜欢	-1730
出现在	-1731
金牌	-1732
接触	-1733
放弃	-1734
泰国	-1735
延伸	-1736
知县	-1737
的地方	-1738
美术	-1739
引擎	-1740
增长	-1741
奖项	-1742
意为	-1743
执导	-1744
结束后	-1745
匈牙	-1746
疫情	-1747
本土	-1748
启用	-1749
ry	-1750
匈牙利	-1751
声明	-1752
贡献	-1753
湖北	-1754
事故	-1755
之下	-1756
医生	-1757
主张	-1758
人和	-1759
而被	-1760
亦有	-1761
理事	-1762
积极	-1763
流域	-1764
边界	-1765
完整	-1766
性质	-1767
股份	-1768
表面	-1769
吸引	-1770
心理	-1771
You	-1772
更多	-1773
病例	-1774
律师	-1775
土耳	-1776
武汉	-1777
推动	-1778
本身	-1779
乘客	-1780
涉及	-1781
属下的一个	-1782
权利	-1783
全面	-1784
复杂	-1785
并将	-1786
土耳其	-1787
台风	-1788
签署	-1789
演唱会	-1790
中共中央	-1791
需求	-1792
九龙	-1793
实际上	-1794
eb	-1795
▁In	-1796
专家	-1797
台中	-1798
▁a	-1799
打击	-1800
村庄	-1801
信仰	-1802
萨克	-1803
出道	-1804
比赛中	-1805
法案	-1806
ive	-1807
因素	-1808
深圳	-1809
红色	-1810
基督教	-1811
▁巴	-1812
欧元	-1813
▁h	-1814
万美元	-1815
加利	-1816
埃及	-1817
如何	-1818
▁南	-1819
强调	-1820
亚历山	-1821
授予	-1822
无人	-1823
疾病	-1824
万元	-1825
容易	-1826
文字	-1827
的高	-1828
标志	-1829
展示	-1830
症状	-1831
可能会	-1832
民间	-1833
荣誉	-1834
参考	-1835
人工	-1836
英雄	-1837
作者	-1838
出席	-1839
损失	-1840
而成	-1841
率领	-1842
也可以	-1843
不满	-1844
社会主义	-1845
抗议	-1846
约为	-1847
按照	-1848
哲学	-1849
有所	-1850
东方	-1851
公司的	-1852
布鲁	-1853
玛丽	-1854
白色	-1855
传说	-1856
光绪	-1857
工具	-1858
内阁	-1859
领袖	-1860
的重要	-1861
高速公路	-1862
的国家	-1863
尼亚州	-1864
混合	-1865
hans	-1866
声称	-1867
参加了	-1868
证据	-1869
被认为是	-1870
定为	-1871
教师	-1872
英尺	-1873
世界杯	-1874
三角	-1875
ant	-1876
后期	-1877
开通	-1878
种族	-1879
将会	-1880
意见	-1881
新疆	-1882
委书记	-1883
装置	-1884
压力	-1885
简单	-1886
鱼纲	-1887
地点	-1888
乡试	-1889
父母	-1890
收购	-1891
萨斯	-1892
部落	-1893
她在	-1894
基因	-1895
岁的	-1896
领土	-1897
举行的	-1898
实行	-1899
长度	-1900
那里	-1901
关闭	-1902
乐队	-1903
知名	-1904
对此	-1905
标为	-1906
亿元	-1907
舞台	-1908
住宅	-1909
ber	-1910
举人	-1911
晚上	-1912
神经	-1913
一定	-1914
多种	-1915
确认	-1916
降低	-1917
地面	-1918
相比	-1919
米的	-1920
才能	-1921
改造	-1922
有一个	-1923
乾隆	-1924
戏剧	-1925
另一个	-1926
这次	-1927
Al	-1928
先生	-1929
教学	-1930
发售	-1931
效果	-1932
中间	-1933
十字	-1934
海外	-1935
▁自	-1936
宇宙	-1937
源于	-1938
古代	-1939
▁中国	-1940
CD	-1941
明治	-1942
的作品	-1943
▁拉	-1944
yn	-1945
顾问	-1946
院长	-1947
▁曾	-1948
ity	-1949
简介	-1950
太空	-1951
正常	-1952
专门	-1953
司法	-1954
驾驶	-1955
台北市	-1956
局长	-1957
参谋	-1958
克莱	-1959
end	-1960
鳍鱼纲	-1961
出来	-1962
转移	-1963
广东省	-1964
年由	-1965
软件	-1966
作曲	-1967
犯罪	-1968
布拉	-1969
小的	-1970
篮球	-1971
都市	-1972
命名为	-1973
不仅	-1974
是以	-1975
来到	-1976
之中	-1977
辐鳍鱼纲	-1978
更加	-1979
年前	-1980
并入	-1981
在其	-1982
经验	-1983
岁时	-1984
师范	-1985
开设	-1986
柏林	-1987
西藏	-1988
步兵	-1989
附近的	-1990
很快	-1991
覆盖	-1992
回应	-1993
省和	-1994
ows	-1995
羽毛球	-1996
在中国	-1997
象征	-1998
发现了	-1999
意思	-2000
合成	-2001
以前	-2002
华盛	-2003
的电	-2004
面对	-2005
改善	-2006
候选人	-2007
海峡	-2008
球会	-2009
硕士	-2010
马尔	-2011
东北部	-2012
私人	-2013
广西	-2014
退役	-2015
变得	-2016
hk	-2017
华盛顿	-2018
差异	-2019
找到	-2020
驱逐	-2021
风险	-2022
即使	-2023
亿美元	-2024
▁奥	-2025
爆炸	-2026
请求	-2027
形象	-2028
下降	-2029
坦克	-2030
责任	-2031
中国人民解放军	-2032
与其他	-2033
扩大	-2034
一家	-2035
代表大会	-2036
资金	-2037
北京市	-2038
▁中	-2039
年初	-2040
机器	-2041
食物	-2042
观测	-2043
出演	-2044
一条	-2045
秘密	-2046
四十	-2047
保罗	-2048
火箭	-2049
的历史	-2050
摄影	-2051
当年	-2052
布尔	-2053
▁g	-2054
苏格兰	-2055
▁以下	-2056
几个	-2057
势力	-2058
地面积为	-2059
的情况下	-2060
比例	-2061
劳动	-2062
文献	-2063
配合	-2064
该地的	-2065
大奖	-2066
one	-2067
化合物	-2068
栖息在	-2069
对象	-2070
为辐鳍鱼纲	-2071
ly	-2072
温度	-2073
▁罗	-2074
制的	-2075
体长可达	-2076
整体	-2077
被迫	-2078
动作	-2079
大厦	-2080
并以	-2081
小型	-2082
的故事	-2083
ack	-2084
经理	-2085
办事	-2086
ort	-2087
下来	-2088
日报	-2089
亨利	-2090
气旋	-2091
▁和	-2092
运作	-2093
花园	-2094
战略	-2095
国家队	-2096
恐怖	-2097
符合	-2098
防御	-2099
价格	-2100
▁黄	-2101
装备	-2102
▁香港	-2103
较为	-2104
哥伦	-2105
等等	-2106
指导	-2107
性别	-2108
成本	-2109
量的	-2110
分配	-2111
情报	-2112
源自	-2113
旗下	-2114
中有	-2115
通车	-2116
促进	-2117
夫人	-2118
▁第	-2119
水域面积为	-2120
军区	-2121
▁金	-2122
说明	-2123
组成的	-2124
高于	-2125
照片	-2126
用作	-2127
的工作	-2128
票房	-2129
▁是	-2130
在该	-2131
周年	-2132
示威	-2133
而言	-2134
▁小	-2135
一座	-2136
北起	-2137
ain	-2138
丹麦	-2139
危机	-2140
最多	-2141
美军	-2142
了解	-2143
的山	-2144
周围	-2145
皇后	-2146
贵族	-2147
退休	-2148
历任	-2149
加盟	-2150
奥运会	-2151
对应	-2152
回归	-2153
任职	-2154
的问题	-2155
▁从	-2156
深度	-2157
西北部	-2158
所属	-2159
政府的	-2160
▁美国	-2161
麦克	-2162
预计	-2163
巡回	-2164
编剧	-2165
年龄	-2166
的海	-2167
形态	-2168
修改	-2169
BC	-2170
在大	-2171
部的	-2172
站台	-2173
ep	-2174
抗日	-2175
错误	-2176
our	-2177
试验	-2178
而水域面积为	-2179
东南部	-2180
提到	-2181
上海市	-2182
兴趣	-2183
国家的	-2184
带来	-2185
妇女	-2186
起义	-2187
食品	-2188
In	-2189
遗产	-2190
配音	-2191
保存	-2192
毕业后	-2193
AR	-2194
两次	-2195
真正	-2196
相信	-2197
代理	-2198
通道	-2199
ss	-2200
创建	-2201
本站	-2202
南方	-2203
加强	-2204
杀死	-2205
名义	-2206
加州	-2207
讲述	-2208
合约	-2209
▁刘	-2210
法官	-2211
克里斯	-2212
构造	-2213
马拉	-2214
oh	-2215
▁三	-2216
引入	-2217
的发展	-2218
十三	-2219
十六	-2220
尚书	-2221
芬兰	-2222
为止	-2223
淡水	-2224
▁概	-2225
印尼	-2226
列入	-2227
大赛	-2228
解散	-2229
尝试	-2230
江西	-2231
州府	-2232
的外	-2233
随即	-2234
代码	-2235
阶级	-2236
重大	-2237
ah	-2238
得知	-2239
▁面积	-2240
注册	-2241
释放	-2242
lay	-2243
德尔	-2244
IC	-2245
的女	-2246
飓风	-2247
万历	-2248
第八	-2249
man	-2250
轰炸	-2251
少女	-2252
游泳	-2253
▁的时区为	-2254
▁东	-2255
sp	-2256
检查	-2257
年来	-2258
生态	-2259
的支持	-2260
领导人	-2261
北海	-2262
年时	-2263
那些	-2264
对外	-2265
推进	-2266
的三	-2267
黑色	-2268
▁与接壤的市镇	-2269
政协	-2270
组建	-2271
声音	-2272
夫卡	-2273
indows	-2274
被视为	-2275
优势	-2276
西南部	-2277
扮演	-2278
指控	-2279
莫斯科	-2280
▁的邮政编码为	-2281
首先	-2282
员工	-2283
大致	-2284
隶属	-2285
沿海	-2286
测量	-2287
退出	-2288
纳粹	-2289
▁于时的人口数量为人	-2290
用途	-2291
▁伊	-2292
家人	-2293
最近	-2294
OS	-2295
▁高	-2296
▁zh	-2297
▁n	-2298
在日本	-2299
月初	-2300
克的	-2301
逮捕	-2302
▁安	-2303
au	-2304
的关系	-2305
同盟	-2306
▁所属的省级选区为	-2307
房屋	-2308
挪威	-2309
一级	-2310
大桥	-2311
经典	-2312
水库	-2313
定居	-2314
资产	-2315
带领	-2316
计算机	-2317
监督	-2318
投降	-2319
萨尔	-2320
克拉	-2321
化石	-2322
保守	-2323
司马	-2324
军官	-2325
BS	-2326
地图	-2327
网球	-2328
▁to	-2329
山西	-2330
任命为	-2331
带有	-2332
的时间	-2333
ER	-2334
当天	-2335
上述	-2336
真实	-2337
大规模	-2338
检测	-2339
艺人	-2340
但由于	-2341
供应	-2342
格为	-2343
AM	-2344
南至	-2345
实验室	-2346
颜色	-2347
分别为	-2348
是德国	-2349
科学院	-2350
缅甸	-2351
科夫	-2352
御史	-2353
他与	-2354
克罗	-2355
火山	-2356
时期的	-2357
ew	-2358
服役	-2359
华人	-2360
特里	-2361
li	-2362
君主	-2363
嘉靖	-2364
患者	-2365
论文	-2366
空气	-2367
加拉	-2368
Mar	-2369
他还	-2370
加利福	-2371
ue	-2372
属下的一个种	-2373
他被	-2374
就会	-2375
语的	-2376
空中	-2377
达州	-2378
家的	-2379
意志	-2380
相互	-2381
次年	-2382
系统的	-2383
型的	-2384
穆斯	-2385
und	-2386
黄金	-2387
与其	-2388
球季	-2389
ast	-2390
寻找	-2391
突然	-2392
▁家族	-2393
众多	-2394
立即	-2395
能量	-2396
对抗	-2397
作出	-2398
电话	-2399
难以	-2400
保险	-2401
岛屿	-2402
ai	-2403
第二次世界大战	-2404
一致	-2405
的两	-2406
亚历山大	-2407
兼任	-2408
修建	-2409
优秀	-2410
斯蒂	-2411
▁天	-2412
剧本	-2413
西兰	-2414
史上	-2415
ff	-2416
参选	-2417
大多	-2418
副主席	-2419
登上	-2420
关键	-2421
原住	-2422
方言	-2423
特别是	-2424
展览	-2425
的中	-2426
绝对	-2427
▁st	-2428
这样的	-2429
等为	-2430
废除	-2431
典礼	-2432
军团	-2433
会员	-2434
时段	-2435
纳州	-2436
阻止	-2437
ont	-2438
努力	-2439
牠们	-2440
升级	-2441
公爵	-2442
AC	-2443
依据	-2444
消费	-2445
具体	-2446
他于	-2447
排行	-2448
现今	-2449
自身	-2450
均为	-2451
青岛	-2452
非建制	-2453
可以指	-2454
原名	-2455
启动	-2456
谈判	-2457
陕西	-2458
会长	-2459
城堡	-2460
丰富	-2461
是一颗	-2462
张专辑	-2463
十八	-2464
日治	-2465
导弹	-2466
十五	-2467
在一	-2468
已被	-2469
其中一种	-2470
山东省	-2471
平原	-2472
派遣	-2473
紧急	-2474
比利时	-2475
告诉	-2476
能源	-2477
习性	-2478
特色	-2479
An	-2480
以外	-2481
生的	-2482
明确	-2483
率为	-2484
天皇	-2485
月的	-2486
指定	-2487
浙江省	-2488
开展	-2489
ey	-2490
哥伦比亚	-2491
死后	-2492
号的	-2493
学士	-2494
视频	-2495
暴力	-2496
的成员	-2497
ON	-2498
伊利	-2499
比如	-2500
困难	-2501
弗朗	-2502
山区	-2503
选为	-2504
不到	-2505
骑兵	-2506
农村	-2507
▁北	-2508
▁科	-2509
旅行	-2510
非建制地区	-2511
助理	-2512
认识	-2513
法兰西	-2514
免费	-2515
德的	-2516
更为	-2517
大学的	-2518
主要是	-2519
转向	-2520
签订	-2521
德语	-2522
扩展	-2523
现实	-2524
满足	-2525
亲王	-2526
明朝政治人物	-2527
铜牌	-2528
也不	-2529
生成	-2530
农民	-2531
三世	-2532
支流	-2533
ate	-2534
波罗	-2535
特定	-2536
主要的	-2537
审查	-2538
相关的	-2539
手机	-2540
书院	-2541
之战	-2542
尼克	-2543
更新	-2544
形目	-2545
卡罗	-2546
固定	-2547
给了	-2548
上有	-2549
特拉	-2550
而非	-2551
由此	-2552
办理	-2553
瓦尔	-2554
呈现	-2555
前身	-2556
卡拉	-2557
副主任	-2558
的后	-2559
原始	-2560
德华	-2561
队长	-2562
留下	-2563
在于	-2564
情况下	-2565
毛泽	-2566
ric	-2567
检察	-2568
剧集	-2569
的设计	-2570
两国	-2571
质疑	-2572
石油	-2573
ith	-2574
两名	-2575
有机	-2576
进步	-2577
的分	-2578
中被	-2579
通讯	-2580
佛罗	-2581
突破	-2582
办事处	-2583
AN	-2584
下令	-2585
雷斯	-2586
江苏省	-2587
保障	-2588
德拉	-2589
在香港	-2590
基金会	-2591
机制	-2592
日上	-2593
东临	-2594
原则	-2595
制定	-2596
终于	-2597
马里	-2598
资本	-2599
▁当	-2600
洛杉	-2601
间的	-2602
依然	-2603
洛杉矶	-2604
首府	-2605
西安	-2606
丈夫	-2607
潜艇	-2608
达尔	-2609
其中包括	-2610
令人	-2611
格拉	-2612
年到	-2613
杰克	-2614
复兴	-2615
毛泽东	-2616
长江	-2617
ex	-2618
▁台湾	-2619
并与	-2620
发动机	-2621
十四	-2622
日期	-2623
维护	-2624
喜剧	-2625
推广	-2626
一段	-2627
主办	-2628
场的	-2629
波斯	-2630
延长	-2631
录音	-2632
领事	-2633
own	-2634
改制	-2635
码头	-2636
接收	-2637
会上	-2638
鱼类	-2639
布莱	-2640
收视	-2641
建筑物	-2642
ore	-2643
采访	-2644
包括以下	-2645
党的	-2646
北方	-2647
主义者	-2648
修复	-2649
二人	-2650
亦是	-2651
运用	-2652
朝廷	-2653
证实	-2654
贵州	-2655
那么	-2656
马斯	-2657
产生的	-2658
本地	-2659
障碍	-2660
竞选	-2661
评估	-2662
已有	-2663
康熙	-2664
刺史	-2665
根廷	-2666
至于	-2667
他也	-2668
称作	-2669
上下	-2670
利益	-2671
一枚	-2672
穆斯林	-2673
昭和	-2674
骑士	-2675
玻璃	-2676
义大利	-2677
它是	-2678
oy	-2679
当地的	-2680
婚姻	-2681
符号	-2682
剧院	-2683
晋级	-2684
周期	-2685
是一座	-2686
地质	-2687
此次	-2688
ib	-2689
IS	-2690
改名为	-2691
所有的	-2692
Ar	-2693
考试	-2694
成都	-2695
银牌	-2696
蒙特	-2697
斯拉夫	-2698
往往	-2699
ert	-2700
首个	-2701
天的	-2702
管理局	-2703
地带	-2704
传媒	-2705
边境	-2706
尼西亚	-2707
监察	-2708
日下	-2709
世界上	-2710
协调	-2711
危险	-2712
工程师	-2713
奥尔	-2714
修正	-2715
上市	-2716
绿色	-2717
同性	-2718
提供了	-2719
JR	-2720
可以在	-2721
出入口	-2722
支付	-2723
ect	-2724
拆除	-2725
罗马尼亚	-2726
内战	-2727
打算	-2728
以北	-2729
邻近	-2730
市政府	-2731
设定	-2732
公安	-2733
利斯	-2734
分离	-2735
滨海	-2736
欧盟	-2737
自杀	-2738
▁埃	-2739
长官	-2740
建立了	-2741
克尔	-2742
中期	-2743
的水	-2744
的电影	-2745
升为	-2746
活跃	-2747
公元前	-2748
商品	-2749
人口为	-2750
职业生涯	-2751
以南	-2752
留在	-2753
撰写	-2754
派出	-2755
书籍	-2756
坚持	-2757
则为	-2758
得名	-2759
市中心	-2760
将在	-2761
尼尔	-2762
态度	-2763
的音乐	-2764
气压	-2765
确保	-2766
指示	-2767
走向	-2768
科学家	-2769
理解	-2770
分别是	-2771
出发	-2772
职位	-2773
靠近	-2774
呼吁	-2775
围绕	-2776
其中男性	-2777
的事	-2778
家中	-2779
一词	-2780
场比赛	-2781
天然	-2782
校区	-2783
是香港	-2784
维斯	-2785
反映	-2786
天体	-2787
转换	-2788
son	-2789
污染	-2790
违反	-2791
十二年	-2792
法的	-2793
叙利亚	-2794
AP	-2795
维埃	-2796
吉林	-2797
大选	-2798
亲自	-2799
吉尔	-2800
交换	-2801
装饰	-2802
对其	-2803
人权	-2804
游行	-2805
詹姆斯	-2806
授权	-2807
出版社	-2808
在内的	-2809
上升	-2810
场景	-2811
部电影	-2812
分裂	-2813
古典	-2814
成长	-2815
ach	-2816
其实	-2817
所谓	-2818
大幅	-2819
等级	-2820
销量	-2821
餐厅	-2822
审判	-2823
弟弟	-2824
我的	-2825
联合会	-2826
强度	-2827
得到了	-2828
ug	-2829
▁早年	-2830
考古	-2831
ina	-2832
校园	-2833
秘书长	-2834
成立的	-2835
演奏	-2836
ox	-2837
占地	-2838
▁for	-2839
ED	-2840
出售	-2841
战士	-2842
各自	-2843
凌晨	-2844
对方	-2845
五月	-2846
首相	-2847
辽宁	-2848
her	-2849
收藏	-2850
甘肃	-2851
苏丹	-2852
而不是	-2853
以为	-2854
淘汰	-2855
适合	-2856
港口	-2857
一切	-2858
货币	-2859
是一部	-2860
阿根廷	-2861
警告	-2862
另有	-2863
柴油	-2864
外交部	-2865
ee	-2866
最低	-2867
曾于	-2868
▁其他	-2869
研发	-2870
会议员	-2871
ord	-2872
发明	-2873
原住民	-2874
国民政府	-2875
各个	-2876
波尔	-2877
莱茵	-2878
意味	-2879
的儿	-2880
确诊病例	-2881
这里	-2882
并由	-2883
勋章	-2884
殖民地	-2885
范围内	-2886
杀害	-2887
循环	-2888
也就是	-2889
必要	-2890
艺术家	-2891
大众	-2892
意外	-2893
足球运动员	-2894
文明	-2895
斯顿	-2896
尤其是	-2897
完工	-2898
监狱	-2899
受欢迎	-2900
席位	-2901
ID	-2902
▁The	-2903
增强	-2904
射击	-2905
耶稣	-2906
▁海	-2907
面临	-2908
生活习性	-2909
立方	-2910
平民	-2911
的部分	-2912
性能	-2913
抵抗	-2914
连任	-2915
两者	-2916
▁林	-2917
的同	-2918
are	-2919
杭州	-2920
年世界	-2921
巴尔	-2922
其中一	-2923
式的	-2924
▁为	-2925
大阪	-2926
式月台	-2927
在中	-2928
可见	-2929
干部	-2930
联络	-2931
高达	-2932
ign	-2933
CO	-2934
唐朝	-2935
第九	-2936
条例	-2937
▁长	-2938
接替	-2939
加速	-2940
后续	-2941
摧毁	-2942
俄国	-2943
ost	-2944
十一年	-2945
中华人民共和国政治人物	-2946
神话	-2947
天文台	-2948
的第二	-2949
▁多	-2950
提及	-2951
公交	-2952
pe	-2953
生活习性不明	-2954
记忆	-2955
签约	-2956
ver	-2957
格尔	-2958
立场	-2959
将领	-2960
▁剧情	-2961
而不	-2962
跟随	-2963
鸟类	-2964
副书记	-2965
在台湾	-2966
附属	-2967
文艺	-2968
决议	-2969
场所	-2970
各类	-2971
洛克	-2972
弗里	-2973
四川省	-2974
明星	-2975
▁此外	-2976
首播	-2977
的位置	-2978
超越	-2979
舞蹈	-2980
成了	-2981
▁截至	-2982
援助	-2983
收集	-2984
法庭	-2985
ies	-2986
两侧	-2987
汉族	-2988
停车	-2989
防止	-2990
大师	-2991
行的	-2992
犹太人	-2993
▁普	-2994
首席	-2995
加入了	-2996
的角色	-2997
南非	-2998
日正式	-2999
公开赛	-3000
他曾代表	-3001
二战	-3002
的名字	-3003
冠状	-3004
位于中国	-3005
ust	-3006
本人	-3007
两位	-3008
出现了	-3009
月球	-3010
ire	-3011
各国	-3012
英里	-3013
直径	-3014
ond	-3015
时候	-3016
车队	-3017
常见的	-3018
为此	-3019
争取	-3020
亚目	-3021
缩写	-3022
国际机场	-3023
ala	-3024
但他	-3025
形容	-3026
怀疑	-3027
货物	-3028
燃料	-3029
Windows	-3030
途中	-3031
发挥	-3032
透露	-3033
设于	-3034
州刺史	-3035
剧场	-3036
言论	-3037
司令部	-3038
的一些	-3039
她们	-3040
天后	-3041
成就	-3042
党员	-3043
首位	-3044
是乌克兰	-3045
发言	-3046
ock	-3047
通信	-3048
他们在	-3049
很大	-3050
区内	-3051
阳市	-3052
两年	-3053
制片	-3054
日于	-3055
ube	-3056
则在	-3057
聚落	-3058
ier	-3059
边缘	-3060
ook	-3061
任期	-3062
aw	-3063
升任	-3064
安东	-3065
颁奖	-3066
顺利	-3067
升格为	-3068
十九	-3069
种植	-3070
陷入	-3071
使其	-3072
单元	-3073
▁X	-3074
长达	-3075
ark	-3076
福建省	-3077
桃园	-3078
爱德华	-3079
为其	-3080
厘米	-3081
科的其中一种	-3082
平衡	-3083
站的	-3084
黄色	-3085
是因为	-3086
主义的	-3087
▁虽然	-3088
ure	-3089
拿下	-3090
积分	-3091
西接	-3092
内蒙古	-3093
体育场	-3094
恩省	-3095
维多	-3096
规范	-3097
▁Y	-3098
线上	-3099
iz	-3100
沃尔	-3101
▁白	-3102
多年	-3103
开幕	-3104
持有	-3105
▁背景	-3106
国军	-3107
常务	-3108
机的	-3109
卢瓦尔省	-3110
无论	-3111
赫尔	-3112
百万	-3113
正面	-3114
数的	-3115
停靠	-3116
ton	-3117
理想	-3118
并被	-3119
报纸	-3120
▁一	-3121
▁有	-3122
天堂	-3123
而该地	-3124
写作	-3125
ass	-3126
鼓励	-3127
消失	-3128
地名	-3129
偶像	-3130
来越	-3131
的总	-3132
月在	-3133
颁发	-3134
odice	-3135
ng	-3136
▁斯	-3137
路易斯	-3138
这首	-3139
理工	-3140
圆形	-3141
老师	-3142
西斯	-3143
该村	-3144
AS	-3145
克林	-3146
路段	-3147
直隶	-3148
中国的	-3149
含有	-3150
az	-3151
▁k	-3152
电车	-3153
足够	-3154
收到	-3155
河南省	-3156
包围	-3157
发生在	-3158
登记	-3159
足球队	-3160
cn	-3161
行业	-3162
生存	-3163
爵士	-3164
▁本属	-3165
教宗	-3166
显著	-3167
ов	-3168
分支	-3169
费用	-3170
档案	-3171
沿革	-3172
公斤	-3173
配备	-3174
星等为	-3175
的形式	-3176
越来越	-3177
冠状病毒	-3178
辞职	-3179
德军	-3180
月起	-3181
互相	-3182
弗雷	-3183
享年	-3184
电气	-3185
在他	-3186
罗德	-3187
旨在	-3188
棒球	-3189
这项	-3190
严格	-3191
将于	-3192
ame	-3193
日开始	-3194
▁米	-3195
歌词	-3196
田径	-3197
推荐	-3198
辐射	-3199
▁哈	-3200
似乎	-3201
本片	-3202
登场	-3203
▁格	-3204
倾向	-3205
基斯坦	-3206
五个	-3207
河的	-3208
博士学位	-3209
级别	-3210
蓝色	-3211
另一方面	-3212
特勒	-3213
大小	-3214
手段	-3215
是为	-3216
预算	-3217
方便	-3218
回忆	-3219
在一起	-3220
西侧	-3221
变为	-3222
模拟	-3223
得主	-3224
董事长	-3225
追溯	-3226
亚军	-3227
双打	-3228
日后	-3229
普鲁	-3230
每日	-3231
创始	-3232
度的	-3233
累计	-3234
美国的	-3235
长沙	-3236
短暂	-3237
隔离	-3238
庆祝	-3239
的原因	-3240
诺伊	-3241
每天	-3242
工会	-3243
的情	-3244
米亚	-3245
执政	-3246
标本	-3247
龙江	-3248
摩尔	-3249
苏里	-3250
频率	-3251
效应	-3252
加利福尼亚州	-3253
数位	-3254
的话	-3255
落成	-3256
会试	-3257
身分	-3258
通知	-3259
ial	-3260
证券	-3261
人民币	-3262
理由	-3263
仅有	-3264
位于该	-3265
▁日本	-3266
寻求	-3267
扩张	-3268
下一	-3269
塞纳	-3270
培训	-3271
直播	-3272
na	-3273
器的	-3274
都在	-3275
举办的	-3276
策略	-3277
学的	-3278
大卫	-3279
游客	-3280
座标为	-3281
航天	-3282
主持人	-3283
ment	-3284
提议	-3285
以上的	-3286
今日	-3287
步枪	-3288
称呼	-3289
正确	-3290
打破	-3291
约瑟	-3292
财产	-3293
暂时	-3294
的政治	-3295
巴赫	-3296
塞尔维亚	-3297
ct	-3298
为新	-3299
三人	-3300
时报	-3301
点的	-3302
后于	-3303
已知	-3304
多人	-3305
商场	-3306
山县	-3307
领地	-3308
列出	-3309
特区	-3310
爱情	-3311
制作的	-3312
方面的	-3313
闻名	-3314
十月	-3315
形状	-3316
栽培	-3317
为中国	-3318
以便	-3319
宣称	-3320
布里	-3321
希尔	-3322
斗争	-3323
omp	-3324
▁Pro	-3325
▁地方	-3326
胜出	-3327
人民代表大会	-3328
嘉义	-3329
Go	-3330
非法	-3331
特兰	-3332
辅助	-3333
▁杨	-3334
参数	-3335
镇下辖以下地区	-3336
替代	-3337
阿尔卑	-3338
吸收	-3339
觉得	-3340
足球俱乐部	-3341
不要	-3342
星系	-3343
山西省	-3344
武帝	-3345
人次	-3346
消防	-3347
境内共有	-3348
合法	-3349
图像	-3350
东侧	-3351
布雷	-3352
天气	-3353
福德	-3354
暂停	-3355
市政	-3356
伯爵	-3357
▁Al	-3358
部部长	-3359
▁他	-3360
派的	-3361
常委	-3362
设计的	-3363
区间	-3364
的长	-3365
会有	-3366
聚集	-3367
Sh	-3368
船只	-3369
斯卡	-3370
被捕	-3371
单独	-3372
做出	-3373
分布在	-3374
判决	-3375
集合	-3376
是台湾	-3377
苹果	-3378
河道	-3379
中最	-3380
只要	-3381
▁曾祖	-3382
主场	-3383
游击	-3384
同时也	-3385
大联盟	-3386
路口	-3387
手术	-3388
接任	-3389
研究院	-3390
内地	-3391
阿尔卑斯	-3392
商人	-3393
古老	-3394
IP	-3395
tt	-3396
战队	-3397
热带气旋	-3398
大夫	-3399
rit	-3400
其中一个	-3401
斯托	-3402
陨石	-3403
的村庄	-3404
画家	-3405
许可	-3406
繁殖	-3407
▁据	-3408
起源	-3409
交汇	-3410
月底	-3411
德意志	-3412
一小时	-3413
新竹	-3414
逐步	-3415
指挥官	-3416
巴基斯坦	-3417
场地	-3418
终点	-3419
货运	-3420
遭受	-3421
格勒	-3422
区议会	-3423
第一位	-3424
会被	-3425
低于	-3426
效力于	-3427
北海道	-3428
从此	-3429
演化	-3430
软体	-3431
VD	-3432
巨大	-3433
总裁	-3434
竞赛	-3435
群众	-3436
约有	-3437
大使馆	-3438
金山	-3439
这座	-3440
传教	-3441
发行的	-3442
视觉	-3443
法语	-3444
弗拉	-3445
食用	-3446
热带风暴	-3447
车厢	-3448
救援	-3449
警报	-3450
特尔	-3451
鱼雷	-3452
佛罗里	-3453
承诺	-3454
ram	-3455
定期	-3456
即将	-3457
使用了	-3458
架构	-3459
转的	-3460
工作室	-3461
史密	-3462
培养	-3463
委托	-3464
联网	-3465
多尔	-3466
诺夫	-3467
遭遇	-3468
上阵	-3469
以此	-3470
se	-3471
南极洲	-3472
布朗	-3473
立陶	-3474
撞击	-3475
本线	-3476
斯洛	-3477
科尔	-3478
创新	-3479
航班	-3480
相同的	-3481
▁上	-3482
成年	-3483
屠杀	-3484
气体	-3485
出场	-3486
ensis	-3487
mer	-3488
后被	-3489
该公司	-3490
包括以下物种	-3491
河北省	-3492
摇滚	-3493
改进	-3494
桥梁	-3495
所在地	-3496
最高的	-3497
组织的	-3498
预测	-3499
▁对	-3500
一职	-3501
充满	-3502
经由	-3503
辖区	-3504
国道	-3505
▁交通	-3506
是俄罗斯	-3507
阿里	-3508
维多利亚	-3509
切尔	-3510
年获	-3511
原先	-3512
Ph	-3513
演艺	-3514
众议院	-3515
交给	-3516
▁前	-3517
学科	-3518
▁本属包括以下物种	-3519
商店	-3520
融合	-3521
巡洋	-3522
影视	-3523
战术	-3524
立陶宛	-3525
施工	-3526
灭绝	-3527
部署	-3528
ohn	-3529
营业	-3530
了自	-3531
连载	-3532
想要	-3533
▁下属	-3534
教育部	-3535
的方法	-3536
▁古	-3537
配置	-3538
大革命	-3539
加尔	-3540
书中	-3541
黑龙江	-3542
▁维	-3543
海平面	-3544
描绘	-3545
级联赛	-3546
加哥	-3547
迁至	-3548
单一	-3549
light	-3550
以东	-3551
沿岸	-3552
芝加哥	-3553
动车	-3554
村落	-3555
ld	-3556
宁波	-3557
主力	-3558
多名	-3559
西里	-3560
▁个人	-3561
独立的	-3562
撤退	-3563
早上	-3564
per	-3565
▁简介	-3566
社交	-3567
足协	-3568
▁目前	-3569
MV	-3570
敌人	-3571
通用	-3572
的行为	-3573
天下	-3574
海上	-3575
补充	-3576
适应	-3577
的基础	-3578
资助	-3579
罗夫	-3580
湖泊	-3581
假设	-3582
改建	-3583
日常	-3584
安徽省	-3585
诗人	-3586
十七	-3587
巴勒	-3588
咖啡	-3589
ide	-3590
参与了	-3591
保证	-3592
方程	-3593
但因	-3594
有著	-3595
刑事	-3596
卫队	-3597
成的	-3598
永久	-3599
经济学	-3600
明尼	-3601
NBA	-3602
叛乱	-3603
都被	-3604
萨拉	-3605
本作	-3606
的反	-3607
余人	-3608
塔尔	-3609
无线电视	-3610
ica	-3611
所采用	-3612
▁第一	-3613
多项	-3614
影像	-3615
现在的	-3616
赞助	-3617
ary	-3618
公告	-3619
海拔为	-3620
密切	-3621
详细	-3622
扩建	-3623
一场	-3624
称号	-3625
主事	-3626
当代	-3627
依赖	-3628
平等	-3629
神社	-3630
近代	-3631
观光	-3632
担心	-3633
认证	-3634
更多的	-3635
城的	-3636
火星	-3637
涉嫌	-3638
自我	-3639
共和党	-3640
制作人	-3641
▁特	-3642
游戏的	-3643
写道	-3644
即位	-3645
这场	-3646
查理	-3647
相当于	-3648
二级	-3649
年以	-3650
观看	-3651
评为	-3652
此站	-3653
之为	-3654
并无	-3655
通往	-3656
河谷	-3657
起初	-3658
美国人	-3659
提出了	-3660
▁而	-3661
的最	-3662
凭借	-3663
被告	-3664
选出	-3665
▁其	-3666
ung	-3667
地形	-3668
▁re	-3669
cl	-3670
ix	-3671
▁Z	-3672
感觉	-3673
前后	-3674
满洲	-3675
行人	-3676
青少年	-3677
股份有限公司	-3678
所处的	-3679
室内	-3680
长约	-3681
ium	-3682
改制为	-3683
巡洋舰	-3684
成立了	-3685
现存	-3686
理查	-3687
女王	-3688
改称	-3689
探测	-3690
重视	-3691
codice	-3692
客户	-3693
一系列	-3694
录影	-3695
ick	-3696
主动	-3697
与此	-3698
分之一	-3699
安娜	-3700
展现	-3701
类的	-3702
迷你	-3703
世纪初	-3704
他为	-3705
相反	-3706
ern	-3707
了他的	-3708
主权	-3709
事实上	-3710
任教	-3711
军在	-3712
处长	-3713
炸弹	-3714
也没有	-3715
建筑师	-3716
疫苗	-3717
▁地方资料	-3718
每周	-3719
汉语	-3720
纳入	-3721
魔法	-3722
有许多	-3723
尼古	-3724
的不	-3725
入境	-3726
的一条	-3727
本科	-3728
诉讼	-3729
阳县	-3730
▁亚	-3731
期的	-3732
粉丝	-3733
印刷	-3734
iss	-3735
可在	-3736
咨询	-3737
脱离	-3738
PS	-3739
不敌	-3740
京都	-3741
圣经	-3742
湖南省	-3743
Un	-3744
作业	-3745
镇压	-3746
利的	-3747
画面	-3748
ae	-3749
以西	-3750
之处	-3751
人为	-3752
直升	-3753
演讲	-3754
群体	-3755
▁使用	-3756
学系	-3757
ace	-3758
伊斯兰教	-3759
地中	-3760
增加了	-3761
左翼	-3762
整合	-3763
认可	-3764
该片	-3765
Sp	-3766
征服	-3767
▁Ar	-3768
名进士	-3769
序列	-3770
班次	-3771
▁吴	-3772
修道	-3773
时区	-3774
如今	-3775
当日	-3776
集体	-3777
铁路车站	-3778
皆为	-3779
加利亚	-3780
当选为	-3781
年与	-3782
州长	-3783
划归	-3784
总监	-3785
区分	-3786
是中华人民共和国	-3787
▁艾	-3788
上了	-3789
萨斯州	-3790
arl	-3791
东南亚	-3792
pp	-3793
中将	-3794
rom	-3795
角度	-3796
对阵	-3797
岛的	-3798
愿意	-3799
▁Sh	-3800
二月	-3801
省的	-3802
目的是	-3803
下了	-3804
族群	-3805
五十	-3806
公顷	-3807
夫妇	-3808
修订	-3809
战斗机	-3810
PC	-3811
里克	-3812
实体	-3813
冒险	-3814
还在	-3815
兵团	-3816
收费	-3817
输出	-3818
oun	-3819
印第	-3820
同日	-3821
彻底	-3822
逻辑	-3823
感染者	-3824
来自于	-3825
钢琴	-3826
IT	-3827
原为	-3828
海南	-3829
省道	-3830
该校	-3831
放在	-3832
单打	-3833
战场	-3834
▁主要	-3835
合同	-3836
奴隶	-3837
区别	-3838
探险	-3839
▁故事	-3840
传统的	-3841
卡斯	-3842
新建	-3843
的所有	-3844
镜头	-3845
的结果	-3846
低气压	-3847
涵盖	-3848
▁由	-3849
选秀	-3850
上帝	-3851
法令	-3852
com	-3853
▁克	-3854
现为	-3855
智能	-3856
特朗	-3857
yl	-3858
该党	-3859
重量	-3860
参议院	-3861
▁外	-3862
分区	-3863
岩石	-3864
夏令时间	-3865
今天	-3866
国防部	-3867
四月	-3868
最为	-3869
岛上	-3870
使用者	-3871
伤亡	-3872
同时该地	-3873
生长于	-3874
维修	-3875
进行的	-3876
控股	-3877
赛车	-3878
▁第二	-3879
次于	-3880
因其	-3881
大街	-3882
道德	-3883
相应	-3884
印第安	-3885
唯一的	-3886
回国	-3887
节度	-3888
两岸	-3889
名人	-3890
ational	-3891
密苏里	-3892
ка	-3893
英呎	-3894
在英国	-3895
MA	-3896
侍郎	-3897
时代的	-3898
已于	-3899
是为了	-3900
在新	-3901
罗伯特	-3902
排行榜	-3903
值得	-3904
泰勒	-3905
委员会委员	-3906
主管	-3907
amp	-3908
认同	-3909
hant	-3910
巨大的	-3911
镇区的	-3912
位的	-3913
引进	-3914
伊拉克	-3915
自行车	-3916
ile	-3917
军人	-3918
大量的	-3919
仍在	-3920
占据	-3921
进党	-3922
清华	-3923
东亚	-3924
是个	-3925
大气	-3926
流传	-3927
纳德	-3928
院士	-3929
▁家庭	-3930
工艺	-3931
很少	-3932
互联网	-3933
保加利亚	-3934
团结	-3935
获胜	-3936
主导	-3937
全线	-3938
过的	-3939
iel	-3940
富汗	-3941
东京都	-3942
年以来	-3943
交叉	-3944
清楚	-3945
遇到	-3946
参谋长	-3947
res	-3948
东海	-3949
志愿	-3950
攻打	-3951
的说法	-3952
地上	-3953
则有	-3954
致力	-3955
衍生	-3956
韦尔	-3957
西班牙语	-3958
原来	-3959
红军	-3960
防空	-3961
旧址	-3962
现有	-3963
除此	-3964
早在	-3965
较低	-3966
位于美国	-3967
主体	-3968
而该地的	-3969
受害	-3970
死刑	-3971
共计	-3972
自称	-3973
死于	-3974
Th	-3975
指数	-3976
驱动	-3977
格雷	-3978
录制	-3979
综艺	-3980
总会	-3981
▁HD	-3982
▁苏	-3983
排名第	-3984
▁日	-3985
▁月	-3986
协定	-3987
代替	-3988
伙伴	-3989
牵引	-3990
中国国民党	-3991
菲尔德	-3992
▁沙	-3993
了许多	-3994
做法	-3995
ear	-3996
议题	-3997
世纪的	-3998
洛夫	-3999
职员	-4000
▁另外	-4001
连结	-4002
的歌曲	-4003
分校	-4004
尼奥	-4005
巴拉	-4006
清代	-4007
县知县	-4008
xh	-4009
保安	-4010
南海	-4011
格里	-4012
乌斯	-4013
old	-4014
最早的	-4015
YouT	-4016
好评	-4017
物品	-4018
先进	-4019
房间	-4020
syn	-4021
职棒	-4022
ma	-4023
八月	-4024
捷克	-4025
男女	-4026
身上	-4027
了他	-4028
多样	-4029
探索	-4030
▁th	-4031
卫视	-4032
型号	-4033
官至	-4034
▁下属物种	-4035
住在	-4036
三月	-4037
始于	-4038
美尼亚	-4039
镇区的面积为	-4040
此前	-4041
日本的	-4042
后在	-4043
引用	-4044
秘鲁	-4045
边的	-4046
地亚	-4047
翌年	-4048
发现的	-4049
委副书记	-4050
科会试	-4051
塔尼	-4052
成分	-4053
政变	-4054
江户	-4055
EC	-4056
少将	-4057
约瑟夫	-4058
神秘	-4059
北侧	-4060
阅读	-4061
行政院	-4062
战胜	-4063
编组	-4064
查尔斯	-4065
成熟	-4066
化为	-4067
想法	-4068
港元	-4069
领先	-4070
他认为	-4071
商务	-4072
服装	-4073
效率	-4074
强制	-4075
友好	-4076
劳工	-4077
厦门	-4078
维克	-4079
竞技	-4080
裁判	-4081
出自	-4082
所需	-4083
tern	-4084
ighlight	-4085
▁水	-4086
性和	-4087
该市	-4088
ath	-4089
的内容	-4090
负责人	-4091
德斯	-4092
士顿	-4093
站房	-4094
交界	-4095
残疾	-4096
是从	-4097
主打	-4098
埔寨	-4099
算法	-4100
战车	-4101
重返	-4102
柬埔寨	-4103
选举中	-4104
延续	-4105
食性	-4106
EN	-4107
中式	-4108
橄榄	-4109
赛中	-4110
成果	-4111
矛盾	-4112
菲利	-4113
世纪末	-4114
第十三	-4115
层的	-4116
降雨	-4117
其为	-4118
日由	-4119
知府	-4120
的城市	-4121
行驶	-4122
同名	-4123
▁波	-4124
图案	-4125
此事	-4126
激烈	-4127
发生了	-4128
六月	-4129
的美国	-4130
乡村	-4131
ship	-4132
县的一个非建制地区	-4133
HK	-4134
成立后	-4135
环形	-4136
ish	-4137
▁阿尔	-4138
体制	-4139
对话	-4140
名举人	-4141
普鲁士	-4142
的生活	-4143
阿富汗	-4144
枢纽	-4145
ous	-4146
奖金	-4147
谴责	-4148
▁其中	-4149
仍有	-4150
冰川	-4151
开办	-4152
接著	-4153
绘画	-4154
IV	-4155
sk	-4156
赛的	-4157
争夺	-4158
公会	-4159
洛斯	-4160
事务所	-4161
AL	-4162
封为	-4163
格林	-4164
研究生	-4165
synta	-4166
调快	-4167
南侧	-4168
具备	-4169
汉字	-4170
调快一小时	-4171
syntaxh	-4172
syntaxhighlight	-4173
同时该地设有	-4174
同时该地设有夏令时间	-4175
七月	-4176
所采用的时区为	-4177
产生了	-4178
land	-4179
而该地所采用的时区为	-4180
根本	-4181
常常	-4182
拉尔	-4183
改名	-4184
容纳	-4185
che	-4186
同性恋	-4187
大家	-4188
济南	-4189
成人	-4190
上诉	-4191
米兰	-4192
▁然而	-4193
日发行	-4194
ogle	-4195
一项	-4196
社群	-4197
就在	-4198
开始在	-4199
古巴	-4200
格鲁	-4201
尔顿	-4202
罕默	-4203
的父亲	-4204
目前尚	-4205
伤害	-4206
南美洲	-4207
奥斯卡	-4208
提出的	-4209
编号为	-4210
高于海平面	-4211
▁二	-4212
山市	-4213
情绪	-4214
为由	-4215
▁Sp	-4216
互动	-4217
颁布	-4218
类似的	-4219
理念	-4220
▁萨	-4221
史密斯	-4222
法兰克	-4223
更换	-4224
的学生	-4225
所处的海拔为	-4226
所处的海拔为高于海平面	-4227
▁概要	-4228
SS	-4229
他和	-4230
头衔	-4231
肺炎	-4232
纪录片	-4233
专用	-4234
入围	-4235
兰州	-4236
江南	-4237
相继	-4238
ory	-4239
ux	-4240
否认	-4241
电动	-4242
推翻	-4243
▁贝	-4244
日语	-4245
智慧	-4246
直升机	-4247
▁除了	-4248
练习	-4249
年期间	-4250
转为	-4251
居民点	-4252
行走	-4253
马克思	-4254
数十	-4255
ork	-4256
崇祯	-4257
英军	-4258
道光	-4259
城县	-4260
年冬季	-4261
日举行	-4262
第一次世界大战	-4263
个体	-4264
提交	-4265
开工	-4266
迪士	-4267
属的植物	-4268
俗称	-4269
判处	-4270
山的	-4271
▁梅	-4272
圣母	-4273
飞弹	-4274
完成了	-4275
曾是	-4276
的女儿	-4277
德克	-4278
慈善	-4279
即北美	-4280
司职	-4281
家乡	-4282
身为	-4283
int	-4284
▁朱	-4285
三国	-4286
信徒	-4287
▁尽管	-4288
携带	-4289
周刊	-4290
彰化	-4291
湖北省	-4292
迪士尼	-4293
是南极洲	-4294
▁Un	-4295
印度尼西亚	-4296
伐克	-4297
GC	-4298
为期	-4299
居住在	-4300
后方	-4301
应对	-4302
伐利亚	-4303
的地区	-4304
驱逐舰	-4305
战争中	-4306
地产	-4307
数百	-4308
省接壤	-4309
穆罕默	-4310
女孩	-4311
承担	-4312
相连	-4313
河流域	-4314
▁Th	-4315
住房	-4316
依照	-4317
星的	-4318
比尔	-4319
歌唱	-4320
背鳍	-4321
企图	-4322
妹妹	-4323
雷达	-4324
布斯	-4325
体育馆	-4326
哥哥	-4327
耶夫	-4328
Cl	-4329
公约	-4330
干线	-4331
正月	-4332
福利	-4333
让他	-4334
重复	-4335
之后的	-4336
习惯	-4337
引种	-4338
同时也是	-4339
准决赛	-4340
在北京	-4341
ET	-4342
也可	-4343
发生的	-4344
▁周	-4345
开启	-4346
地中海	-4347
ood	-4348
第十一	-4349
粮食	-4350
终止	-4351
▁莫	-4352
是不	-4353
年任	-4354
抑制	-4355
诺曼	-4356
进口	-4357
面向	-4358
做为	-4359
一天	-4360
因应	-4361
排列	-4362
OR	-4363
合唱	-4364
无限	-4365
民进党	-4366
海拔高度为	-4367
▁帕	-4368
自此	-4369
的城镇	-4370
co	-4371
财务	-4372
顺序	-4373
城墙	-4374
前进	-4375
伊利诺伊	-4376
九月	-4377
为基础	-4378
这也是	-4379
史蒂	-4380
无症状	-4381
共产主义	-4382
陕西省	-4383
三种	-4384
曾被	-4385
识别	-4386
头部	-4387
迁移	-4388
修道院	-4389
女演员	-4390
▁瓦	-4391
人称	-4392
掌握	-4393
美丽	-4394
而来	-4395
境外	-4396
局的	-4397
郎中	-4398
▁la	-4399
一百	-4400
一部	-4401
线性	-4402
批判	-4403
高原	-4404
医学院	-4405
转会	-4406
内有	-4407
对称	-4408
突厥	-4409
纳斯	-4410
预备	-4411
琉球	-4412
议席	-4413
领导的	-4414
▁国际	-4415
层水域	-4416
攻占	-4417
洛特	-4418
云南省	-4419
名词	-4420
本届	-4421
病逝	-4422
起诉	-4423
航线	-4424
在那里	-4425
DVD	-4426
火车	-4427
出现的	-4428
内政	-4429
旋转	-4430
推出的	-4431
飞行员	-4432
任天堂	-4433
物的	-4434
亚美尼亚	-4435
女主角	-4436
▁Sch	-4437
局局长	-4438
设计师	-4439
SM	-4440
迫使	-4441
心脏	-4442
ris	-4443
苏维埃	-4444
委任	-4445
纽约州	-4446
由人工	-4447
节度使	-4448
战争期间	-4449
更是	-4450
混乱	-4451
仅次于	-4452
指责	-4453
不得不	-4454
立法会	-4455
农场	-4456
到的	-4457
管制	-4458
美国海军	-4459
途径	-4460
部尚书	-4461
化学式	-4462
同步	-4463
造成的	-4464
ax	-4465
园区	-4466
考察	-4467
沈阳	-4468
哈尔滨	-4469
临床	-4470
的概念	-4471
环球	-4472
赢得了	-4473
几何	-4474
联军	-4475
历史学家	-4476
谋杀	-4477
方程式	-4478
罗马帝国	-4479
望远	-4480
首度	-4481
后来的	-4482
大公	-4483
标题	-4484
用以	-4485
主流	-4486
论坛	-4487
接管	-4488
色彩	-4489
年中	-4490
贝格	-4491
年获得	-4492
标记	-4493
引种栽培	-4494
被任命为	-4495
州的一个市镇	-4496
弹药	-4497
题材	-4498
年欧洲	-4499
难民	-4500
情节	-4501
手枪	-4502
皮肤	-4503
获奖	-4504
中心的	-4505
总站	-4506
密苏里州	-4507
台币	-4508
太后	-4509
粤语	-4510
流量	-4511
的国际	-4512
▁以	-4513
ection	-4514
护照	-4515
诊断	-4516
取得了	-4517
▁乌	-4518
途经	-4519
龙的	-4520
巴勒斯坦	-4521
加勒	-4522
一人	-4523
大字	-4524
由人工引种栽培	-4525
吾尔	-4526
深入	-4527
陨石坑	-4528
运河	-4529
穿过	-4530
转的小行星	-4531
流经	-4532
政务	-4533
日凌晨	-4534
选民	-4535
它在	-4536
足球联赛	-4537
一支	-4538
的地位	-4539
库尔	-4540
ence	-4541
是意大利	-4542
事后	-4543
于此	-4544
及其他	-4545
的能力	-4546
添加	-4547
移居	-4548
平均海拔高度为	-4549
尸体	-4550
气温	-4551
冲击	-4552
异常	-4553
孟加拉	-4554
指令	-4555
较大	-4556
ros	-4557
国家公园	-4558
电视动画	-4559
两条	-4560
国有	-4561
ille	-4562
而该地的平均海拔高度为	-4563
实力	-4564
种类	-4565
▁德	-4566
写的	-4567
望远镜	-4568
解除	-4569
都督	-4570
严重的	-4571
行政中心	-4572
拉德	-4573
物资	-4574
道的	-4575
公里的	-4576
生产的	-4577
是西班牙	-4578
UN	-4579
分成	-4580
曲目	-4581
重组	-4582
发音	-4583
外观	-4584
本书	-4585
之际	-4586
福州	-4587
可前往	-4588
全体	-4589
宣告	-4590
ool	-4591
▁经济	-4592
和人口	-4593
YouTube	-4594
的主题	-4595
巴伐利亚	-4596
导师	-4597
enter	-4598
通行	-4599
总经理	-4600
取自	-4601
太原	-4602
纤维	-4603
正义	-4604
站是	-4605
ite	-4606
任内	-4607
ara	-4608
天津市	-4609
希特勒	-4610
剧中	-4611
受损	-4612
术语	-4613
▁评价	-4614
工作的	-4615
ames	-4616
物体	-4617
奖最佳	-4618
河口	-4619
网上	-4620
印象	-4621
▁黑	-4622
他对	-4623
品质	-4624
基隆	-4625
明尼苏	-4626
进士出身	-4627
建国	-4628
经纪	-4629
青海	-4630
实践	-4631
近年	-4632
加斯	-4633
竣工	-4634
集会	-4635
与此同时	-4636
mm	-4637
同学	-4638
尺寸	-4639
推测	-4640
流动	-4641
送到	-4642
遗传	-4643
巴马	-4644
作曲家	-4645
四大	-4646
定理	-4647
筹备	-4648
继任	-4649
AK	-4650
公寓	-4651
搜索	-4652
新北	-4653
向南	-4654
英镑	-4655
为大	-4656
国旗	-4657
相邻	-4658
ley	-4659
塔基	-4660
季后	-4661
它们的	-4662
公务	-4663
ron	-4664
县城	-4665
▁游戏	-4666
ime	-4667
获得一枚	-4668
下半	-4669
哈里	-4670
期刊	-4671
清真	-4672
att	-4673
第三次	-4674
录影带	-4675
出赛	-4676
电池	-4677
原创	-4678
早期的	-4679
推行	-4680
代的	-4681
形成的	-4682
垂直	-4683
高架	-4684
特朗普	-4685
客车	-4686
在西	-4687
中正	-4688
蛋白质	-4689
ii	-4690
呼吸	-4691
▁Town	-4692
虚拟	-4693
的面积为	-4694
借由	-4695
为台湾	-4696
副部长	-4697
无症状感染者	-4698
面体	-4699
鲁斯	-4700
直路	-4701
维吾尔	-4702
And	-4703
上方	-4704
封锁	-4705
界的	-4706
泽尔省	-4707
采用了	-4708
向北	-4709
日被	-4710
其在	-4711
则由	-4712
刺激	-4713
最多的	-4714
年代初	-4715
航空公司	-4716
的山峰	-4717
IR	-4718
兹省	-4719
年春	-4720
生长于海拔	-4721
有可能	-4722
照顾	-4723
办法	-4724
月中	-4725
队员	-4726
任中共	-4727
也纳	-4728
等待	-4729
存在的	-4730
提供的	-4731
月开始	-4732
电视节目	-4733
三大	-4734
结论	-4735
uk	-4736
▁石	-4737
奖牌	-4738
米的地区	-4739
在内	-4740
加以	-4741
参议员	-4742
为首	-4743
喜爱	-4744
私立	-4745
在一个	-4746
CC	-4747
就读于	-4748
ve	-4749
元帅	-4750
出土	-4751
朗德	-4752
矩阵	-4753
纳尔	-4754
ata	-4755
位于该省	-4756
ск	-4757
有着	-4758
团长	-4759
布兰	-4760
戈尔	-4761
褐色	-4762
传奇	-4763
区和	-4764
消灭	-4765
新西兰	-4766
增设	-4767
突出	-4768
年毕业于	-4769
▁全	-4770
公社	-4771
也曾	-4772
提前	-4773
雕塑	-4774
类似于	-4775
座堂	-4776
张单曲	-4777
称之为	-4778
来往	-4779
的成绩	-4780
各级	-4781
模特	-4782
ical	-4783
穆罕默德	-4784
像是	-4785
大连	-4786
普罗	-4787
坐落	-4788
Play	-4789
勒斯	-4790
支线	-4791
认定	-4792
纪念碑	-4793
彼此	-4794
四世	-4795
col	-4796
下载	-4797
了对	-4798
宣言	-4799
出版的	-4800
产地	-4801
除此之外	-4802
他人	-4803
境内的	-4804
贝克	-4805
托马斯	-4806
MS	-4807
La	-4808
茨基	-4809
运动的	-4810
印地	-4811
时针	-4812
春秋	-4813
创作的	-4814
天使	-4815
慕尼	-4816
莎白	-4817
ck	-4818
校舍	-4819
高雄市	-4820
▁原	-4821
脂鲤	-4822
硕士学位	-4823
迪亚	-4824
三次	-4825
上游	-4826
百姓	-4827
位于中华人民共和国	-4828
版的	-4829
这部	-4830
天文学家	-4831
AD	-4832
准确	-4833
定位	-4834
手中	-4835
费尔	-4836
北平	-4837
失踪	-4838
该地区	-4839
内亚	-4840
洪水	-4841
▁An	-4842
物种的	-4843
如同	-4844
过渡	-4845
山地	-4846
爱国	-4847
翰林	-4848
读者	-4849
祖先	-4850
南斯拉夫	-4851
分解	-4852
IG	-4853
的圣	-4854
在法国	-4855
好友	-4856
▁al	-4857
伊利诺伊州	-4858
凤凰	-4859
县长	-4860
野生	-4861
▁为了	-4862
判断	-4863
始终	-4864
获取	-4865
个国家	-4866
德罗	-4867
购物	-4868
enn	-4869
十三年	-4870
党组	-4871
加工	-4872
莱斯	-4873
age	-4874
第一届	-4875
起点	-4876
Le	-4877
形的	-4878
秩序	-4879
黑暗	-4880
温带	-4881
肯定	-4882
适用于	-4883
可以通过	-4884
这类	-4885
Sc	-4886
下属	-4887
ts	-4888
不变	-4889
换乘	-4890
王室	-4891
附加	-4892
微软	-4893
机动	-4894
的男	-4895
也因此	-4896
公共交通	-4897
km	-4898
▁简	-4899
广州市	-4900
拿破	-4901
水量	-4902
词汇	-4903
拿破仑	-4904
加入中国共产党	-4905
ES	-4906
回答	-4907
常委会	-4908
Qu	-4909
盟军	-4910
慕尼黑	-4911
常规	-4912
金刚	-4913
奥斯曼	-4914
火车站	-4915
的计划	-4916
▁on	-4917
幕府	-4918
遗迹	-4919
最高法院	-4920
协商	-4921
条款	-4922
穿越	-4923
长安	-4924
下来的	-4925
大批	-4926
普林	-4927
特点	-4928
祭祀	-4929
细节	-4930
面积和人口	-4931
歧视	-4932
ude	-4933
▁法国	-4934
CP	-4935
宿舍	-4936
港铁	-4937
年成立	-4938
工作人员	-4939
紧张	-4940
能在	-4941
屋顶	-4942
发掘	-4943
晚间	-4944
特性	-4945
较高	-4946
格式	-4947
下方	-4948
按察	-4949
理事会	-4950
人大代表	-4951
级的	-4952
剩余	-4953
苏州	-4954
在他的	-4955
面积和人口皆	-4956
该地的面积和人口皆	-4957
号为	-4958
该庄	-4959
谢尔	-4960
师范大学	-4961
没有任何	-4962
股东	-4963
追求	-4964
攻势	-4965
译为	-4966
的座标为	-4967
极端	-4968
著有	-4969
ann	-4970
eng	-4971
兵力	-4972
多夫	-4973
伯格	-4974
福音	-4975
创始人	-4976
大队	-4977
守护	-4978
阵容	-4979
维也纳	-4980
流域面积	-4981
优先	-4982
容量	-4983
普拉	-4984
Google	-4985
向东	-4986
过于	-4987
这段	-4988
是对	-4989
立方米	-4990
数为	-4991
长大	-4992
合并为	-4993
末期	-4994
就有	-4995
了一些	-4996
交易所	-4997
政治家	-4998
产物	-4999
参观	-5000
出来的	-5001
John	-5002
打开	-5003
搭载	-5004
车手	-5005
的代表	-5006
轰炸机	-5007
称赞	-5008
夺取	-5009
下列	-5010
基辅	-5011
无人机	-5012
永远	-5013
但不	-5014
产量	-5015
往返	-5016
是英国	-5017
六个	-5018
OM	-5019
体验	-5020
巡抚	-5021
强的	-5022
总额	-5023
较少	-5024
DNA	-5025
受到了	-5026
城际	-5027
离婚	-5028
亮相	-5029
名誉	-5030
幸存	-5031
恐龙	-5032
ana	-5033
这两个	-5034
屯门	-5035
停车场	-5036
的道路	-5037
品种	-5038
小姐	-5039
神圣	-5040
节奏	-5041
评审	-5042
年担任	-5043
致力于	-5044
的阿	-5045
钢铁	-5046
人民法院	-5047
乘坐	-5048
开业	-5049
医师	-5050
细菌	-5051
台湾的	-5052
纷纷	-5053
诞生	-5054
还包括	-5055
站厅	-5056
选中	-5057
歇尔	-5058
之地	-5059
会社	-5060
乐器	-5061
免疫	-5062
预告	-5063
ove	-5064
ps	-5065
出于	-5066
权的	-5067
于同年	-5068
集团军	-5069
夏威	-5070
外围	-5071
相较	-5072
生活在	-5073
功率	-5074
act	-5075
的世界	-5076
布政	-5077
▁建筑	-5078
储存	-5079
剧团	-5080
三名	-5081
力学	-5082
▁对于	-5083
行政镇区	-5084
智利	-5085
每次	-5086
ode	-5087
前来	-5088
注入	-5089
格斯	-5090
弗兰	-5091
年他	-5092
土壤	-5093
设在	-5094
开发的	-5095
巴斯	-5096
线和	-5097
首尔	-5098
Pro	-5099
尼古拉	-5100
传递	-5101
川县	-5102
保卫	-5103
第十二	-5104
▁r	-5105
制成	-5106
▁Mar	-5107
曾为	-5108
极为	-5109
眼睛	-5110
ale	-5111
十二月	-5112
晚期	-5113
身亡	-5114
道夫	-5115
电影节	-5116
就任	-5117
▁胡	-5118
的名称	-5119
研究员	-5120
十大	-5121
口径	-5122
进球	-5123
传输	-5124
良好	-5125
县的一个行政镇区	-5126
密西	-5127
全世界	-5128
生效	-5129
读书	-5130
台南市	-5131
夏威夷	-5132
太守	-5133
等于	-5134
问题的	-5135
并为	-5136
沟通	-5137
yle	-5138
▁博	-5139
即可	-5140
的开	-5141
旗下的	-5142
逢星期	-5143
专员	-5144
并有	-5145
事情	-5146
无线电	-5147
强化	-5148
▁制作	-5149
伦多	-5150
姓氏	-5151
一部分	-5152
警员	-5153
▁莱	-5154
元朝	-5155
US	-5156
姊妹	-5157
说是	-5158
过度	-5159
慕容	-5160
撤离	-5161
长春	-5162
克斯坦	-5163
充分	-5164
反而	-5165
波特	-5166
租界	-5167
强大的	-5168
州负责管辖	-5169
列宁	-5170
吉他	-5171
封闭	-5172
诗歌	-5173
这首歌	-5174
这时	-5175
都不	-5176
以外的	-5177
的马	-5178
屏东	-5179
支队	-5180
牧师	-5181
的大型	-5182
幻想	-5183
捷运	-5184
罗讷	-5185
▁加	-5186
反抗	-5187
诺斯	-5188
和大	-5189
饮食	-5190
大奖赛	-5191
形成了	-5192
改装	-5193
划分	-5194
之名	-5195
向量	-5196
ons	-5197
org	-5198
召集	-5199
性格	-5200
坐标为	-5201
的经济	-5202
叙述	-5203
该剧	-5204
示威者	-5205
ys	-5206
在前	-5207
多元	-5208
意图	-5209
截止	-5210
iam	-5211
地域	-5212
总共	-5213
法军	-5214
或称	-5215
昆虫	-5216
改编自	-5217
车道	-5218
ans	-5219
和美国	-5220
的中国	-5221
的身份	-5222
▁汉	-5223
夜间	-5224
投手	-5225
业余	-5226
▁利	-5227
两座	-5228
又在	-5229
女神	-5230
分之	-5231
一至	-5232
合理	-5233
王位	-5234
ink	-5235
大同	-5236
工商	-5237
会议上	-5238
并且在	-5239
信任	-5240
等职	-5241
江西省	-5242
人与	-5243
克利	-5244
压缩	-5245
技巧	-5246
但其	-5247
司机	-5248
首任	-5249
伦斯	-5250
向西	-5251
阵亡	-5252
独特的	-5253
也称	-5254
战国	-5255
片段	-5256
第二个	-5257
义务	-5258
珊瑚	-5259
选票	-5260
aint	-5261
▁赵	-5262
以往	-5263
国语	-5264
的四	-5265
微博	-5266
处理器	-5267
立法委员	-5268
天府	-5269
确实	-5270
雅典	-5271
的机会	-5272
景观	-5273
造型	-5274
感情	-5275
排放	-5276
wit	-5277
的一次	-5278
TA	-5279
▁红	-5280
台湾省	-5281
之上	-5282
总局	-5283
那样	-5284
和他的	-5285
她曾	-5286
ula	-5287
▁郑	-5288
▁本站	-5289
▁中华人民共和国	-5290
决策	-5291
原理	-5292
耶尔	-5293
最终在	-5294
▁个人生活	-5295
友谊	-5296
地处	-5297
因此在	-5298
放送	-5299
景点	-5300
人死亡	-5301
格拉斯	-5302
车型	-5303
政治部	-5304
公立	-5305
IM	-5306
硬币	-5307
yst	-5308
俄军	-5309
框架	-5310
的社会	-5311
军委	-5312
原有	-5313
新型	-5314
霍尔	-5315
最高点	-5316
多为	-5317
灵感	-5318
IA	-5319
响应	-5320
发言人	-5321
的日	-5322
af	-5323
中断	-5324
福尔	-5325
福特	-5326
限于	-5327
次列车	-5328
清真寺	-5329
伊尔	-5330
ivers	-5331
局势	-5332
空袭	-5333
有两个	-5334
轨道交通	-5335
届全国人民代表大会	-5336
▁正	-5337
员外	-5338
哈利	-5339
十四年	-5340
▁Township	-5341
体操	-5342
本名	-5343
民政	-5344
系列的	-5345
领事馆	-5346
球运动员	-5347
得票	-5348
集的	-5349
可能性	-5350
整理	-5351
米至	-5352
拉多	-5353
此地	-5354
编制	-5355
Station	-5356
GB	-5357
HR	-5358
他将	-5359
运算	-5360
物理学	-5361
被发现	-5362
政协委员	-5363
周末	-5364
十一月	-5365
回合	-5366
看见	-5367
orn	-5368
播出的	-5369
类型的	-5370
顺时针	-5371
颁奖典礼	-5372
▁比	-5373
黑人	-5374
存在于	-5375
本地区	-5376
肯塔基	-5377
战中	-5378
首批	-5379
光谱	-5380
沿线	-5381
燃烧	-5382
年成为	-5383
文化大革命	-5384
一旦	-5385
人才	-5386
先前	-5387
哈拉	-5388
科幻	-5389
叫做	-5390
签证	-5391
转任	-5392
进而	-5393
残疾人	-5394
活动的	-5395
得分	-5396
新界	-5397
类别	-5398
萨克森	-5399
的大部分	-5400
白人	-5401
国家安全	-5402
里奥	-5403
▁唐	-5404
关联	-5405
初步	-5406
前者	-5407
认为是	-5408
沙田	-5409
的日本	-5410
美术馆	-5411
售票	-5412
年于	-5413
次数	-5414
圣诞	-5415
处决	-5416
建有	-5417
北卡罗	-5418
去世后	-5419
革命军	-5420
任意	-5421
公署	-5422
火灾	-5423
航行	-5424
螺旋	-5425
上将	-5426
不知	-5427
巡逻	-5428
▁后	-5429
洛阳	-5430
流亡	-5431
灵魂	-5432
人大常委会	-5433
嘉庆	-5434
是一家	-5435
一路	-5436
男孩	-5437
预防	-5438
发展的	-5439
上面	-5440
看法	-5441
副使	-5442
电路	-5443
中书	-5444
通常是	-5445
一份	-5446
东区	-5447
中原	-5448
队友	-5449
就可以	-5450
见于	-5451
次日	-5452
威尼斯	-5453
教徒	-5454
选拔	-5455
Ad	-5456
核酸	-5457
主题曲	-5458
佛罗里达州	-5459
三位	-5460
高层	-5461
的河流	-5462
平安	-5463
晶体	-5464
理学	-5465
真人	-5466
经费	-5467
赋予	-5468
集结	-5469
青春	-5470
首领	-5471
恩斯	-5472
托尔	-5473
那州	-5474
ek	-5475
原型	-5476
牺牲	-5477
不受	-5478
至此	-5479
在当时	-5480
亚科	-5481
发达	-5482
讨伐	-5483
的手	-5484
草案	-5485
发布了	-5486
就业	-5487
策划	-5488
研究中心	-5489
发表了	-5490
但仍	-5491
侦察	-5492
蒸汽	-5493
均有	-5494
军方	-5495
前锋	-5496
大林	-5497
年末	-5498
荣获	-5499
动员	-5500
机枪	-5501
补助	-5502
完整的	-5503
▁You	-5504
及后	-5505
大理	-5506
执法	-5507
族人	-5508
杰出	-5509
突击	-5510
观赏	-5511
▁英国	-5512
波士顿	-5513
专科	-5514
制品	-5515
另一种	-5516
▁明	-5517
尊重	-5518
以其	-5519
梅尔	-5520
累积	-5521
span	-5522
一开始	-5523
乔治亚	-5524
时间为	-5525
orld	-5526
打造	-5527
机器人	-5528
的存在	-5529
公式	-5530
莫尔	-5531
入球	-5532
右翼	-5533
昆明	-5534
虚构	-5535
抗日战争	-5536
促使	-5537
动工	-5538
文本	-5539
随机	-5540
阿尔巴	-5541
尼泊	-5542
战败	-5543
专利	-5544
包含了	-5545
模仿	-5546
的有	-5547
Ste	-5548
冠状病毒病	-5549
机组	-5550
的热	-5551
灭亡	-5552
在第	-5553
留学	-5554
基督徒	-5555
教科	-5556
在中国大	-5557
▁索	-5558
亚当	-5559
初年	-5560
面上	-5561
外界	-5562
几内亚	-5563
▁卢	-5564
新台币	-5565
▁四	-5566
电信	-5567
监管	-5568
辩论	-5569
口岸	-5570
职责	-5571
跑道	-5572
▁华	-5573
版权	-5574
辞去	-5575
▁作为	-5576
澎湖	-5577
随之	-5578
十六年	-5579
并不是	-5580
就像	-5581
布罗	-5582
▁雷	-5583
上半	-5584
休息	-5585
菲利普	-5586
书写	-5587
仅仅	-5588
将他	-5589
当作	-5590
牙齿	-5591
在上海	-5592
潜在	-5593
的建筑	-5594
▁龙	-5595
平成	-5596
的活动	-5597
交响	-5598
参演	-5599
的其他	-5600
体重	-5601
此举	-5602
诺贝尔	-5603
行政长官	-5604
水深	-5605
威尔斯	-5606
参见	-5607
垃圾	-5608
调任	-5609
日治时期	-5610
侵犯	-5611
防守	-5612
旧金山	-5613
一号	-5614
交战	-5615
爱好	-5616
率军	-5617
金曲	-5618
院校	-5619
▁皮	-5620
夏天	-5621
编写	-5622
第一百	-5623
供奉	-5624
车人次	-5625
加龙	-5626
杀人	-5627
某种	-5628
印地安	-5629
为该	-5630
他说	-5631
的比赛	-5632
华州	-5633
放射	-5634
湖广	-5635
最重要的	-5636
▁吉	-5637
富士	-5638
影评	-5639
抗战	-5640
FC	-5641
新人	-5642
EST	-5643
ase	-5644
ins	-5645
各地的	-5646
清朝政治人物	-5647
九州	-5648
新城	-5649
本来	-5650
村民	-5651
ech	-5652
司令员	-5653
真正的	-5654
清水	-5655
二次	-5656
帕尔	-5657
年香港	-5658
条目	-5659
南昌	-5660
布局	-5661
股权	-5662
的土地	-5663
立法院	-5664
重点文物保护单位	-5665
ра	-5666
击中	-5667
法尔	-5668
确立	-5669
缓慢	-5670
支持者	-5671
▁塔	-5672
高校	-5673
年亚洲	-5674
动态	-5675
古迹	-5676
总体	-5677
歧义	-5678
热带低气压	-5679
▁En	-5680
前线	-5681
▁塞	-5682
就被	-5683
阿基	-5684
毫无	-5685
否则	-5686
嘉宾	-5687
温泉	-5688
东路	-5689
趋势	-5690
台中市	-5691
了该	-5692
人被	-5693
定于	-5694
环保	-5695
安德烈	-5696
此类	-5697
命名的	-5698
▁永	-5699
大正	-5700
户部	-5701
远征	-5702
主教练	-5703
收视率	-5704
row	-5705
三级	-5706
下游	-5707
意味着	-5708
Co	-5709
影响力	-5710
安县	-5711
旗帜	-5712
的西	-5713
观音	-5714
后又	-5715
尔夫	-5716
正是	-5717
监制	-5718
讯息	-5719
▁音乐	-5720
制造商	-5721
round	-5722
毗邻	-5723
拜占	-5724
美国总统	-5725
往来	-5726
滑雪	-5727
高地	-5728
打败	-5729
十五年	-5730
曾担任	-5731
军舰	-5732
同月	-5733
金斯	-5734
铁路局	-5735
▁车站结构	-5736
分享	-5737
其他的	-5738
版本的	-5739
明尼苏达州	-5740
百科	-5741
网友	-5742
营养	-5743
城市的	-5744
克西	-5745
名录	-5746
改良	-5747
的意思	-5748
其顿	-5749
调节	-5750
这两	-5751
辽宁省	-5752
MP	-5753
后卫	-5754
在北	-5755
转乘	-5756
认知	-5757
俘虏	-5758
年才	-5759
放置	-5760
北京大学	-5761
变换	-5762
沿用	-5763
等的	-5764
额外	-5765
年加入	-5766
党籍	-5767
评论家	-5768
国籍	-5769
转变	-5770
基本上	-5771
元音	-5772
复活	-5773
师长	-5774
是有	-5775
ress	-5776
与大	-5777
提案	-5778
东日本	-5779
CA	-5780
高铁	-5781
体现	-5782
克雷	-5783
路径	-5784
成功的	-5785
LE	-5786
人气	-5787
兴起	-5788
干扰	-5789
人生	-5790
短期	-5791
委员会主席	-5792
存储	-5793
网民	-5794
改组	-5795
的第三	-5796
表现出	-5797
都可以	-5798
专注	-5799
道歉	-5800
ius	-5801
▁徐	-5802
大帝	-5803
进军	-5804
最有	-5805
故障	-5806
行车	-5807
有线	-5808
说服	-5809
工党	-5810
平定	-5811
平行	-5812
火炮	-5813
球比赛	-5814
法规	-5815
的内	-5816
的对	-5817
予以	-5818
斯省	-5819
太郎	-5820
考入	-5821
雕像	-5822
是位于乌克兰	-5823
牛津	-5824
她是	-5825
来看	-5826
族自治	-5827
而闻名	-5828
数码	-5829
to	-5830
可是	-5831
在与	-5832
差距	-5833
精确	-5834
罕见	-5835
时间的	-5836
统治者	-5837
不详	-5838
刊登	-5839
发育	-5840
归类	-5841
中世纪	-5842
二氧化	-5843
气象局	-5844
书法	-5845
战绩	-5846
愤怒	-5847
站至	-5848
描写	-5849
本次	-5850
补给	-5851
若干	-5852
的要求	-5853
现已	-5854
名称为	-5855
依靠	-5856
ash	-5857
电影的	-5858
该组织	-5859
里面	-5860
一共	-5861
奖章	-5862
研制	-5863
的一位	-5864
▁五	-5865
听到	-5866
时刻	-5867
▁is	-5868
强迫	-5869
晋升	-5870
lex	-5871
带来的	-5872
华北	-5873
捐赠	-5874
梦想	-5875
沙漠	-5876
都没有	-5877
语音	-5878
ose	-5879
多伦多	-5880
指的是	-5881
则以	-5882
样本	-5883
泽西	-5884
赔偿	-5885
环形山	-5886
最后一次	-5887
不佳	-5888
宜兰	-5889
广播电台	-5890
▁文	-5891
山顶	-5892
IST	-5893
在这个	-5894
ance	-5895
▁欧	-5896
代数	-5897
北魏	-5898
哈德	-5899
数个	-5900
▁早期	-5901
尼泊尔	-5902
最终以	-5903
县政府	-5904
停留	-5905
她与	-5906
浓度	-5907
英超	-5908
委员会的	-5909
团的	-5910
风景	-5911
定义为	-5912
但却	-5913
后因	-5914
山口	-5915
有两	-5916
盆地	-5917
编入	-5918
落败	-5919
主教座堂	-5920
命运	-5921
染色	-5922
各项	-5923
影展	-5924
止于	-5925
并成为	-5926
简单的	-5927
乐园	-5928
精灵	-5929
拜占庭	-5930
稳定的	-5931
同志	-5932
专区	-5933
▁Cl	-5934
的同时	-5935
ward	-5936
常住	-5937
海关	-5938
英寸	-5939
是印度	-5940
影业	-5941
斯和	-5942
负面	-5943
孙中山	-5944
县治	-5945
当晚	-5946
透明	-5947
帝国的	-5948
追溯到	-5949
▁韦	-5950
拉特	-5951
受害者	-5952
最初的	-5953
债务	-5954
典型	-5955
体型	-5956
候车	-5957
观念	-5958
复合	-5959
动车组	-5960
季节	-5961
菩萨	-5962
马力	-5963
ald	-5964
共识	-5965
my	-5966
逃离	-5967
ola	-5968
oll	-5969
section	-5970
数千	-5971
篇小说	-5972
PlayStation	-5973
血统	-5974
或其他	-5975
生物学	-5976
▁e	-5977
贷款	-5978
的消息	-5979
EP	-5980
普及	-5981
利安	-5982
学员	-5983
正规	-5984
由来	-5985
aul	-5986
决赛中	-5987
的游戏	-5988
之时	-5989
茨克	-5990
阵营	-5991
来源于	-5992
制裁	-5993
有多	-5994
预期	-5995
总司令	-5996
的绝对	-5997
rist	-5998
顺治	-5999
eth	-6000
公布为	-6001
为食	-6002
介石	-6003
里奇	-6004
在欧洲	-6005
天文学	-6006
是一个位于美国	-6007
海水	-6008
的上	-6009
BD	-6010
体积	-6011
省长	-6012
中饰演	-6013
塞拜	-6014
数值	-6015
加勒比	-6016
很大的	-6017
马恩省	-6018
于时的人口数量为人	-6019
ty	-6020
进展	-6021
现时由	-6022
学士学位	-6023
克劳	-6024
在南	-6025
起源于	-6026
克罗地亚	-6027
光学	-6028
层为	-6029
路军	-6030
英国的	-6031
古屋	-6032
各大	-6033
之前的	-6034
明显的	-6035
纽约市	-6036
▁凯	-6037
但没有	-6038
国会议员	-6039
交付	-6040
便是	-6041
古老的	-6042
首歌曲	-6043
台风警报	-6044
CH	-6045
事变	-6046
国家足球队	-6047
水利	-6048
在这里	-6049
裔美国人	-6050
字符	-6051
有了	-6052
的前身	-6053
徒刑	-6054
广播公司	-6055
哺乳	-6056
五世	-6057
完美	-6058
擅长	-6059
ome	-6060
意识到	-6061
清华大学	-6062
视星等为	-6063
通报	-6064
频繁	-6065
高峰	-6066
农历	-6067
的神	-6068
的特征	-6069
法学	-6070
总书记	-6071
姐妹	-6072
某个	-6073
的家	-6074
▁y	-6075
亦为	-6076
的军事	-6077
彗星	-6078
舆论	-6079
这位	-6080
草原	-6081
新冠	-6082
沉积	-6083
▁分类	-6084
原因是	-6085
更大的	-6086
CN	-6087
口号	-6088
率先	-6089
蒋介石	-6090
删除	-6091
开播	-6092
所辖	-6093
被杀	-6094
马德里	-6095
政府在	-6096
连续剧	-6097
xt	-6098
幸福	-6099
那个	-6100
anc	-6101
顺时针与	-6102
名叫	-6103
四人	-6104
队在	-6105
每一	-6106
的全	-6107
西比	-6108
数目	-6109
见到	-6110
副总统	-6111
白俄罗斯	-6112
位于该国西部	-6113
维基	-6114
Net	-6115
委常委	-6116
的最高	-6117
aj	-6118
即时	-6119
封面	-6120
搭档	-6121
大部份	-6122
开始了	-6123
习近	-6124
▁Mus	-6125
卡特	-6126
银河	-6127
oph	-6128
消歧义	-6129
图形	-6130
安置	-6131
行政区域	-6132
配乐	-6133
中等	-6134
博览	-6135
战舰	-6136
直辖	-6137
重庆市	-6138
冷却	-6139
监禁	-6140
科罗	-6141
驻扎	-6142
▁双	-6143
德勒	-6144
较大的	-6145
婚礼	-6146
婴儿	-6147
明代	-6148
之女	-6149
ww	-6150
▁达	-6151
市内	-6152
终结	-6153
发布的	-6154
▁赛	-6155
图尔	-6156
船员	-6157
路站	-6158
erv	-6159
基尔	-6160
很难	-6161
马达	-6162
座位	-6163
渐渐	-6164
即为	-6165
圣殿	-6166
文帝	-6167
但是在	-6168
享有	-6169
已在	-6170
森堡	-6171
特别行政区	-6172
了两	-6173
崇拜	-6174
每小时	-6175
一半	-6176
年为	-6177
送往	-6178
并获得	-6179
延伸至	-6180
约克	-6181
的一个属	-6182
月份	-6183
极大	-6184
母舰	-6185
习近平	-6186
年设立	-6187
可靠	-6188
终身	-6189
名古屋	-6190
方向的	-6191
火力	-6192
球迷	-6193
罢工	-6194
描述为	-6195
下旬	-6196
划入	-6197
即是	-6198
更改	-6199
足联	-6200
总教区	-6201
建筑面积	-6202
共享	-6203
III	-6204
溶液	-6205
▁电影	-6206
南极条约	-6207
搭配	-6208
程度上	-6209
排除	-6210
耳曼	-6211
担当	-6212
播映	-6213
▁社会	-6214
文化的	-6215
损害	-6216
阵线	-6217
决于	-6218
流浪	-6219
的母亲	-6220
马其顿	-6221
传染	-6222
并向	-6223
技能	-6224
系的	-6225
局部	-6226
日益	-6227
降雨量	-6228
催化	-6229
▁第三	-6230
▁内	-6231
创意	-6232
情感	-6233
防卫	-6234
▁沿革	-6235
全国重点文物保护单位	-6236
探讨	-6237
浪漫	-6238
lor	-6239
玛丽亚	-6240
直属	-6241
建立的	-6242
的一项	-6243
变更	-6244
ini	-6245
SP	-6246
汤姆	-6247
活性	-6248
海底	-6249
社团	-6250
秋季	-6251
血液	-6252
包括了	-6253
中东	-6254
之意	-6255
是大	-6256
ade	-6257
政委	-6258
规格	-6259
夺冠	-6260
时常	-6261
里程	-6262
工作者	-6263
权威	-6264
真的	-6265
大学生	-6266
颗小行星	-6267
路德	-6268
迁往	-6269
道教	-6270
illa	-6271
相机	-6272
议长	-6273
ild	-6274
可以用	-6275
年代末	-6276
人群	-6277
指标	-6278
诸多	-6279
重的	-6280
pen	-6281
大学教授	-6282
乡下辖以下地区	-6283
器官	-6284
斯里	-6285
爆发后	-6286
的表现	-6287
占总人口	-6288
还要	-6289
员外郎	-6290
香港的	-6291
▁Com	-6292
人体	-6293
进程	-6294
纳粹德国	-6295
山脉的一部分	-6296
▁清	-6297
堂区	-6298
拉的	-6299
本质	-6300
阿布	-6301
站是位于	-6302
是最	-6303
短片	-6304
▁Re	-6305
人文	-6306
恶化	-6307
打进	-6308
大将军	-6309
成化	-6310
高山	-6311
科进士	-6312
年因	-6313
神父	-6314
接受了	-6315
总部位于	-6316
南极条约体系	-6317
应当	-6318
花莲	-6319
金额	-6320
▁争议	-6321
▁相关	-6322
击败了	-6323
美国国家	-6324
百年	-6325
赤纬	-6326
事中	-6327
他以	-6328
入了	-6329
和社会	-6330
游戏中	-6331
冲绳	-6332
花费	-6333
驻地	-6334
广泛的	-6335
▁无	-6336
的特有	-6337
国共	-6338
并对	-6339
暴露	-6340
BO	-6341
也能	-6342
他州	-6343
侵略	-6344
场合	-6345
方形	-6346
工部	-6347
据说	-6348
黄河	-6349
导致了	-6350
EM	-6351
▁宋	-6352
连同	-6353
繁荣	-6354
古希腊	-6355
争论	-6356
斯图	-6357
蒙德	-6358
臀鳍	-6359
船厂	-6360
内斯	-6361
据点	-6362
独自	-6363
财富	-6364
为日本	-6365
最后的	-6366
现代化	-6367
南极条约体系管理	-6368
ни	-6369
前方	-6370
教导	-6371
和一个	-6372
吉亚	-6373
有利	-6374
遗体	-6375
治安	-6376
爱的	-6377
首映	-6378
世界的	-6379
阿尔巴尼亚	-6380
书店	-6381
和新	-6382
治理	-6383
泰尔	-6384
立委	-6385
▁杜	-6386
上一	-6387
全台	-6388
提琴	-6389
深刻	-6390
并表示	-6391
地址	-6392
时被	-6393
这条	-6394
年轻的	-6395
所谓的	-6396
AV	-6397
▁霍	-6398
赤经	-6399
远东	-6400
饭店	-6401
周恩	-6402
月任	-6403
询问	-6404
国外	-6405
雍正	-6406
之内	-6407
文的	-6408
出生在	-6409
HD	-6410
▁万	-6411
分散	-6412
哈佛	-6413
带著	-6414
继位	-6415
原来的	-6416
宫殿	-6417
学院的	-6418
推出了	-6419
甘肃省	-6420
天桥	-6421
电梯	-6422
里昂	-6423
▁约翰	-6424
布置	-6425
邮局	-6426
作物	-6427
元首	-6428
巴布	-6429
激进	-6430
的多	-6431
消费者	-6432
发生于	-6433
▁因	-6434
依旧	-6435
的双	-6436
客家	-6437
新区	-6438
株式	-6439
社长	-6440
近年来	-6441
Am	-6442
较小	-6443
的目标	-6444
一千	-6445
勃艮	-6446
瓦多	-6447
纳省	-6448
运送	-6449
发电厂	-6450
剑桥	-6451
失去了	-6452
季后赛	-6453
有关的	-6454
黑龙江省	-6455
巴塞	-6456
龙科	-6457
酸盐	-6458
东汉	-6459
则被	-6460
号和	-6461
案例	-6462
跨越	-6463
转型	-6464
oft	-6465
境外输入	-6466
的比赛中	-6467
环绕	-6468
株式会社	-6469
助于	-6470
ank	-6471
一角	-6472
世代	-6473
停运	-6474
大于	-6475
期望	-6476
猪笼	-6477
▁分布	-6478
与中国	-6479
的作用	-6480
减弱	-6481
变种	-6482
奥古	-6483
战列	-6484
ake	-6485
后来在	-6486
作的	-6487
回复	-6488
法定	-6489
西区	-6490
违法	-6491
老板	-6492
配角	-6493
录音室	-6494
宽度	-6495
族的	-6496
河道全长	-6497
总计	-6498
葬于	-6499
在位	-6500
纵队	-6501
结局	-6502
que	-6503
仪器	-6504
南端	-6505
会计	-6506
代码为	-6507
现时由南极条约体系管理	-6508
则于	-6509
台东	-6510
悬挂	-6511
敏感	-6512
血管	-6513
面包	-6514
▁这个	-6515
我们的	-6516
上任	-6517
曾有	-6518
为主题	-6519
一生	-6520
上校	-6521
付费	-6522
网页	-6523
猪笼草	-6524
的非	-6525
还原	-6526
十七年	-6527
取决于	-6528
以及中国大	-6529
但也	-6530
广岛	-6531
移交	-6532
誉为	-6533
传教士	-6534
由其	-6535
引起了	-6536
刑部	-6537
弘治	-6538
政治局	-6539
唱片公司	-6540
联合台风警报	-6541
Re	-6542
▁它	-6543
不如	-6544
立刻	-6545
ail	-6546
综艺节目	-6547
主编	-6548
优惠	-6549
勃艮第	-6550
战争的	-6551
刚果	-6552
该站	-6553
二十年	-6554
罪名	-6555
BM	-6556
吏部	-6557
斯在	-6558
起了	-6559
的区域	-6560
参赛资格	-6561
▁车站构造	-6562
作词	-6563
对比	-6564
布列	-6565
▁民国	-6566
吉林省	-6567
华语	-6568
菲尔	-6569
年世界杯	-6570
更高	-6571
事件的	-6572
新北市	-6573
男主角	-6574
第一批	-6575
联合台风警报中心	-6576
不在	-6577
废弃	-6578
少数民族	-6579
干预	-6580
灰色	-6581
阿姆	-6582
De	-6583
公投	-6584
关东	-6585
爱荷	-6586
裁定	-6587
郑州	-6588
▁pro	-6589
▁with	-6590
me	-6591
元朗	-6592
索尼	-6593
绘制	-6594
一个月	-6595
该村始建于	-6596
恐惧	-6597
时尚	-6598
不可能	-6599
卢瓦尔	-6600
▁天主教	-6601
波音	-6602
消除	-6603
癌症	-6604
戴维斯	-6605
主人	-6606
但最终	-6607
back	-6608
电流	-6609
初级	-6610
独特	-6611
转播	-6612
列颠	-6613
巴克	-6614
曲线	-6615
语中	-6616
ower	-6617
电力机车	-6618
反射	-6619
声优	-6620
高丽	-6621
是一款	-6622
DP	-6623
主要由	-6624
的速度	-6625
安妮	-6626
▁文化	-6627
转移到	-6628
科研	-6629
特定的	-6630
延安	-6631
赛马	-6632
olog	-6633
克里斯蒂	-6634
SO	-6635
▁山	-6636
水面	-6637
自主	-6638
斯大林	-6639
GA	-6640
公平	-6641
告知	-6642
士坦	-6643
定律	-6644
的过程	-6645
rans	-6646
阴谋	-6647
董事会	-6648
首张	-6649
指挥部	-6650
制备	-6651
外部	-6652
发行了	-6653
肯塔基州	-6654
▁谢	-6655
寄生	-6656
▁经历	-6657
回家	-6658
宁夏	-6659
适当	-6660
SAO	-6661
族自治区	-6662
之路	-6663
释出	-6664
家庄	-6665
灾难	-6666
战役中	-6667
亦可	-6668
弹劾	-6669
▁饰	-6670
中场	-6671
又有	-6672
的使用	-6673
家属	-6674
拯救	-6675
洛伊	-6676
礼拜	-6677
续集	-6678
肌肉	-6679
语和	-6680
人受伤	-6681
分组	-6682
当前	-6683
▁Le	-6684
乌拉	-6685
大埔	-6686
无关	-6687
DA	-6688
德兰	-6689
的环境	-6690
ound	-6691
CR	-6692
展出	-6693
的传统	-6694
南宋	-6695
吉斯	-6696
纺织	-6697
被指	-6698
ler	-6699
纽西兰	-6700
间接	-6701
日耳曼	-6702
系统中	-6703
众人	-6704
南下	-6705
过世	-6706
时间内	-6707
总是	-6708
暴动	-6709
王后	-6710
ella	-6711
之乱	-6712
习俗	-6713
使他	-6714
分开	-6715
创下	-6716
毁灭	-6717
车的	-6718
重修	-6719
混凝	-6720
软条	-6721
这也	-6722
雅各	-6723
君士坦	-6724
一只	-6725
你们	-6726
动词	-6727
发送	-6728
的信	-6729
总督府	-6730
委内	-6731
曹操	-6732
人力	-6733
德川	-6734
根州	-6735
位于银	-6736
学校的	-6737
丘陵	-6738
DC	-6739
强大	-6740
的东	-6741
限定	-6742
▁福	-6743
厅长	-6744
天空	-6745
保护区	-6746
良好的	-6747
音乐会	-6748
专案	-6749
佩尔	-6750
尼日	-6751
本剧	-6752
荃湾	-6753
财经	-6754
迁徙	-6755
ebook	-6756
半径	-6757
走廊	-6758
丧失	-6759
介入	-6760
普尔	-6761
民党	-6762
缩短	-6763
项目的	-6764
▁法	-6765
同治	-6766
所得	-6767
洪武	-6768
委内瑞	-6769
巡回赛	-6770
先锋	-6771
正统	-6772
外交官	-6773
Br	-6774
安打	-6775
氯化	-6776
浏览	-6777
物浦	-6778
给他	-6779
银纬	-6780
迈克尔	-6781
DS	-6782
并开始	-6783
组成部分	-6784
国民革命军	-6785
街头	-6786
人是	-6787
边形	-6788
最好的	-6789
混凝土	-6790
的标准	-6791
▁中华民国	-6792
mp	-6793
寺庙	-6794
海盗	-6795
▁Me	-6796
Lin	-6797
完善	-6798
支部	-6799
典型的	-6800
模特儿	-6801
位于银经	-6802
red	-6803
▁若	-6804
校友	-6805
rip	-6806
与美国	-6807
坐标为赤经	-6808
舰艇	-6809
万吨	-6810
击退	-6811
大败	-6812
股票	-6813
▁简历	-6814
改由	-6815
会面	-6816
回来	-6817
干燥	-6818
泰因	-6819
哲学家	-6820
计划的	-6821
代号	-6822
晚年	-6823
莱坞	-6824
一方	-6825
密码	-6826
腐败	-6827
人认为	-6828
翰林院	-6829
HO	-6830
对他	-6831
堡的	-6832
复仇	-6833
招募	-6834
而后	-6835
中所	-6836
中队	-6837
复制	-6838
情形	-6839
海姆	-6840
特烈	-6841
电压	-6842
雕刻	-6843
个市镇	-6844
其中有	-6845
日宣布	-6846
年冬季奥林匹克运动会	-6847
▁参考	-6848
太阳公	-6849
的功能	-6850
ital	-6851
▁武	-6852
利奥	-6853
步行	-6854
转而	-6855
在当地	-6856
不利	-6857
攻入	-6858
石器	-6859
横滨	-6860
起飞	-6861
一日	-6862
其父	-6863
宫廷	-6864
热门	-6865
要塞	-6866
面前	-6867
理查德	-6868
追踪	-6869
丽莎白	-6870
作品的	-6871
illiam	-6872
事宜	-6873
▁Be	-6874
腓特烈	-6875
航空母舰	-6876
ground	-6877
反击	-6878
马路	-6879
县级	-6880
星际	-6881
权益	-6882
的一家	-6883
而得名	-6884
中立	-6885
便利	-6886
北宋	-6887
艾伦	-6888
达科	-6889
遵守	-6890
葡萄牙语	-6891
▁不	-6892
包装	-6893
发的	-6894
爱沙	-6895
以及在	-6896
Ge	-6897
怀孕	-6898
支撑	-6899
费城	-6900
但后来	-6901
威尔士	-6902
月中旬	-6903
▁现	-6904
奖励	-6905
后不久	-6906
年左右	-6907
他又	-6908
繁忙	-6909
让人	-6910
区负责管辖	-6911
图片	-6912
时速	-6913
超级联赛	-6914
交由	-6915
rad	-6916
前身为	-6917
TO	-6918
acebook	-6919
兰卡	-6920
本部	-6921
沉没	-6922
ere	-6923
创办人	-6924
厄尔	-6925
月刊	-6926
布政使	-6927
集中在	-6928
烈士	-6929
绍兴	-6930
ise	-6931
▁如果	-6932
反对派	-6933
大军	-6934
每一个	-6935
▁这颗小行星	-6936
全境	-6937
勇士	-6938
名列	-6939
寺院	-6940
移植	-6941
足以	-6942
位于法国奥	-6943
树木	-6944
海滩	-6945
紧密	-6946
购入	-6947
其中的	-6948
印度洋	-6949
乌鲁	-6950
在今	-6951
扩散	-6952
替换	-6953
ree	-6954
不久后	-6955
北洋	-6956
罪行	-6957
爱沙尼亚	-6958
简化	-6959
金门	-6960
▁教育	-6961
北美洲	-6962
最近的	-6963
bo	-6964
施行	-6965
▁style	-6966
保育	-6967
医药	-6968
月被	-6969
ner	-6970
借此	-6971
全数	-6972
怀特	-6973
改任	-6974
有三	-6975
的心	-6976
脊椎	-6977
三角形	-6978
的绝对星等为	-6979
届全国政协委员	-6980
新一	-6981
度假	-6982
隔年	-6983
不但	-6984
少量	-6985
lo	-6986
在上	-6987
幼儿	-6988
撒冷	-6989
晋升为	-6990
克里米亚	-6991
为他	-6992
则会	-6993
树林	-6994
病人	-6995
天然气	-6996
年上映	-6997
夫勒	-6998
山坡	-6999
日晚	-7000
暗示	-7001
死者	-7002
的妻	-7003
公务员	-7004
形式的	-7005
▁这颗小行星的绝对星等为	-7006
▁平	-7007
老挝	-7008
蝙蝠	-7009
实质	-7010
摩托	-7011
监视	-7012
石头	-7013
过了	-7014
▁ch	-7015
丹尼	-7016
耶路	-7017
周恩来	-7018
交往	-7019
识字	-7020
十八年	-7021
的轨道	-7022
围绕太阳公	-7023
на	-7024
和阿	-7025
庙宇	-7026
时会	-7027
歌剧	-7028
卸任	-7029
野战	-7030
领域的	-7031
业者	-7032
壁画	-7033
密歇	-7034
▁be	-7035
沙特	-7036
一张	-7037
液体	-7038
玫瑰	-7039
瑞克	-7040
逃亡	-7041
BBC	-7042
科医生	-7043
cc	-7044
与之	-7045
全年	-7046
用地	-7047
过后	-7048
阳光	-7049
oci	-7050
名额	-7051
寿命	-7052
思考	-7053
消耗	-7054
迫害	-7055
roup	-7056
射线	-7057
比利牛	-7058
▁何	-7059
学堂	-7060
乡道	-7061
太宗	-7062
复杂的	-7063
是一颗围绕太阳公	-7064
广义	-7065
示范	-7066
赛艇	-7067
近似	-7068
隐藏	-7069
any	-7070
ble	-7071
莱纳州	-7072
是一颗围绕太阳公转的小行星	-7073
的女性	-7074
助攻	-7075
tor	-7076
省道台	-7077
总统选举	-7078
一所	-7079
先发	-7080
EE	-7081
追击	-7082
可由	-7083
死去	-7084
阿肯	-7085
不愿	-7086
几年	-7087
意思是	-7088
总长	-7089
膨胀	-7090
验证	-7091
Met	-7092
堪萨斯州	-7093
不及	-7094
亚种	-7095
和的	-7096
大大	-7097
领队	-7098
ony	-7099
第二季	-7100
▁Col	-7101
底层水域	-7102
耶路撒冷	-7103
北极	-7104
社会的	-7105
北区	-7106
间谍	-7107
交流道	-7108
ti	-7109
收复	-7110
不需要	-7111
北约	-7112
哈特	-7113
进驻	-7114
此天体	-7115
的官方	-7116
相对于	-7117
LO	-7118
国安	-7119
客串	-7120
心的	-7121
暗杀	-7122
用了	-7123
男演员	-7124
主唱	-7125
战区	-7126
aur	-7127
支球队	-7128
击落	-7129
厂商	-7130
搬到	-7131
穿著	-7132
▁世界	-7133
第一部	-7134
两大	-7135
文革	-7136
及利亚	-7137
是韩国	-7138
ел	-7139
围攻	-7140
国中	-7141
地势	-7142
北部的	-7143
日内	-7144
降落	-7145
为美国	-7146
加热	-7147
省会	-7148
总决赛	-7149
领衔	-7150
不列颠	-7151
办公厅	-7152
日本人	-7153
阿拉斯	-7154
不多	-7155
姐姐	-7156
手法	-7157
Rob	-7158
做了	-7159
▁col	-7160
物理学家	-7161
▁孙	-7162
为名	-7163
给事中	-7164
华东	-7165
原址	-7166
大厅	-7167
快乐	-7168
战时	-7169
水的	-7170
检验	-7171
百货	-7172
同为	-7173
城门	-7174
干涉	-7175
炮兵	-7176
阵地	-7177
通过了	-7178
科技大学	-7179
不良	-7180
南区	-7181
特鲁	-7182
的中心	-7183
ML	-7184
ів	-7185
又被	-7186
oth	-7187
巴士路线	-7188
TS	-7189
ci	-7190
亦在	-7191
次的	-7192
负担	-7193
理工学院	-7194
下的一个属	-7195
国土	-7196
新生	-7197
普森	-7198
Car	-7199
修正案	-7200
南路	-7201
一间	-7202
写成	-7203
ISTAT	-7204
商标	-7205
民用	-7206
的行动	-7207
tain	-7208
▁lang	-7209
小平	-7210
放映	-7211
变形	-7212
并称	-7213
开辟	-7214
推迟	-7215
特种	-7216
讯号	-7217
也可能	-7218
分别在	-7219
女歌手	-7220
的人口	-7221
将其升格为	-7222
格莱	-7223
也称为	-7224
高等教育	-7225
个别	-7226
企划	-7227
巴嫩	-7228
故意	-7229
河内	-7230
珠海	-7231
邮件	-7232
年代的	-7233
月下旬	-7234
▁但	-7235
关节	-7236
巡演	-7237
航站	-7238
塞拜疆	-7239
与他	-7240
庄园	-7241
总结	-7242
日记	-7243
期徒刑	-7244
宾夕	-7245
就已经	-7246
一边	-7247
历代	-7248
奉命	-7249
旋律	-7250
范畴	-7251
委内瑞拉	-7252
ka	-7253
含量	-7254
崩溃	-7255
损坏	-7256
漫画家	-7257
多位	-7258
差别	-7259
的亲	-7260
真相	-7261
▁因为	-7262
一辆	-7263
受体	-7264
楼梯	-7265
水上	-7266
讽刺	-7267
的技术	-7268
兵部	-7269
国铁	-7270
制片人	-7271
登进士	-7272
ystem	-7273
光明	-7274
司长	-7275
诸如	-7276
轨电车	-7277
▁库	-7278
ren	-7279
举行了	-7280
开行	-7281
ited	-7282
兰德	-7283
拉姆	-7284
管道	-7285
公益	-7286
沼泽	-7287
阿列	-7288
年代中期	-7289
剧组	-7290
是该	-7291
精英	-7292
苗栗	-7293
为一个	-7294
站位于	-7295
GP	-7296
久的	-7297
史料	-7298
号在	-7299
啤酒	-7300
丰富的	-7301
无效	-7302
站在	-7303
迄今	-7304
▁这些	-7305
年中国	-7306
仓库	-7307
全市	-7308
灾害	-7309
交汇处	-7310
eter	-7311
▁以下为	-7312
民族主义	-7313
Ed	-7314
全书	-7315
批复	-7316
拘留	-7317
纪念馆	-7318
中华民国政府	-7319
老人	-7320
西路	-7321
带到	-7322
out	-7323
检察官	-7324
▁沃	-7325
者和	-7326
迪斯	-7327
郊区	-7328
ane	-7329
app	-7330
伯利亚	-7331
最终于	-7332
文化遗产	-7333
罗马天主教	-7334
意识形态	-7335
铁路公司	-7336
年有	-7337
立体	-7338
编曲	-7339
迷你专辑	-7340
原有的	-7341
ings	-7342
省负责管辖	-7343
▁八	-7344
堡垒	-7345
采购	-7346
相较于	-7347
IF	-7348
宗座	-7349
流通	-7350
绑架	-7351
英属	-7352
还会	-7353
uper	-7354
一群	-7355
拉萨	-7356
板块	-7357
▁战后	-7358
利物浦	-7359
号月台	-7360
▁He	-7361
黎巴嫩	-7362
▁For	-7363
基础设施	-7364
▁职业生涯	-7365
个性	-7366
亚利	-7367
首届	-7368
万平方米	-7369
只在	-7370
最小	-7371
色情	-7372
证书	-7373
语法	-7374
▁Ph	-7375
自由党	-7376
阿肯色	-7377
En	-7378
▁托	-7379
法人	-7380
▁俄罗斯	-7381
组长	-7382
rat	-7383
第一名	-7384
模式产地	-7385
号种	-7386
无锡	-7387
的美	-7388
直通	-7389
供电	-7390
引导	-7391
朝鲜半岛	-7392
中以	-7393
人都	-7394
他自	-7395
党派	-7396
击沉	-7397
及时	-7398
废止	-7399
日和	-7400
缺陷	-7401
西门	-7402
▁影响	-7403
巨人	-7404
启发	-7405
索尔	-7406
于香港	-7407
二百	-7408
射入	-7409
HE	-7410
但因为	-7411
杰克逊	-7412
的决定	-7413
一期	-7414
参政	-7415
导体	-7416
防护	-7417
clude	-7418
ий	-7419
万张	-7420
标示	-7421
此一	-7422
点是	-7423
观政	-7424
ual	-7425
发表的	-7426
心理学	-7427
乒乓	-7428
升降	-7429
埃德	-7430
工资	-7431
解体	-7432
重伤	-7433
夫斯基	-7434
合肥	-7435
告示	-7436
守备	-7437
的两个	-7438
的名义	-7439
国立台湾	-7440
可用	-7441
城内	-7442
恋爱	-7443
瓦拉	-7444
落实	-7445
再加上	-7446
国际赛	-7447
伊丽莎白	-7448
爱荷华州	-7449
▁反	-7450
党内	-7451
的自	-7452
rop	-7453
高等学校	-7454
定了	-7455
贫困	-7456
▁特征	-7457
了一种	-7458
宾夕法	-7459
肉食性	-7460
卫冕	-7461
唐代	-7462
▁洛	-7463
传承	-7464
军长	-7465
和小	-7466
旅客铁道	-7467
gh	-7468
▁勒	-7469
的金	-7470
和中国	-7471
之初	-7472
享受	-7473
又译	-7474
痛苦	-7475
礼部	-7476
通勤	-7477
▁设计	-7478
铁路的	-7479
北起顺时针与	-7480
▁里	-7481
惩罚	-7482
所长	-7483
武术	-7484
重力	-7485
该物种的	-7486
使者	-7487
遇难	-7488
黎明	-7489
位居	-7490
武力	-7491
祖籍	-7492
也成为	-7493
参赛者	-7494
的不同	-7495
为何	-7496
翡翠	-7497
ole	-7498
横跨	-7499
聘请	-7500
衣服	-7501
lic	-7502
保守党	-7503
可分为	-7504
被列为	-7505
最后一个	-7506
公国	-7507
出兵	-7508
报复	-7509
毒品	-7510
破产	-7511
接下来的	-7512
理事长	-7513
密西西比	-7514
El	-7515
▁乌克兰	-7516
EX	-7517
头的	-7518
部曲	-7519
金像	-7520
帕拉	-7521
车体	-7522
造成了	-7523
一周	-7524
不一	-7525
会以	-7526
开除	-7527
西元	-7528
骨骼	-7529
rin	-7530
年首次	-7531
获得第	-7532
就能	-7533
有意	-7534
年出版	-7535
万名	-7536
之称	-7537
干事	-7538
职能	-7539
丹尼尔	-7540
的基本	-7541
最著名的	-7542
传记	-7543
清军	-7544
巴哈	-7545
常用	-7546
陨坑	-7547
调查局	-7548
这部电影	-7549
感谢	-7550
物业	-7551
肿瘤	-7552
年正式	-7553
UR	-7554
后才	-7555
节日	-7556
其后于	-7557
德国的	-7558
第二轮	-7559
考虑到	-7560
柴油机车	-7561
▁美	-7562
公车	-7563
更大	-7564
背面	-7565
les	-7566
部副部长	-7567
一书	-7568
含义	-7569
正德	-7570
▁II	-7571
▁一些	-7572
达到了	-7573
lass	-7574
租借	-7575
▁Ex	-7576
知名的	-7577
塔尼大区	-7578
▁电	-7579
运载	-7580
并将其	-7581
拘捕	-7582
生意	-7583
duc	-7584
伟大的	-7585
六世	-7586
帆船	-7587
行程	-7588
ics	-7589
后来被	-7590
资深	-7591
较多	-7592
一直在	-7593
会导致	-7594
ition	-7595
sc	-7596
人对	-7597
休闲	-7598
位在	-7599
公演	-7600
榴弹	-7601
真菌	-7602
行使	-7603
沿海省份	-7604
冰岛	-7605
延迟	-7606
皇室	-7607
RNA	-7608
这使得	-7609
▁元	-7610
一等	-7611
奥多	-7612
护卫	-7613
特斯	-7614
画作	-7615
见面	-7616
酒精	-7617
了其	-7618
字体	-7619
在此期间	-7620
BL	-7621
为中	-7622
代谢	-7623
北面	-7624
挖掘	-7625
预定	-7626
计划在	-7627
他从	-7628
剩下	-7629
是自	-7630
矿物	-7631
福冈	-7632
青铜	-7633
上线	-7634
偶尔	-7635
和西	-7636
王朱	-7637
后世	-7638
片中	-7639
移除	-7640
角逐	-7641
诸塞	-7642
转投	-7643
irl	-7644
则认为	-7645
background	-7646
的定义	-7647
得出	-7648
水中	-7649
蜘蛛	-7650
语系	-7651
处罚	-7652
巴拿	-7653
海湾	-7654
玩具	-7655
好莱坞	-7656
Fran	-7657
会谈	-7658
最具	-7659
极限	-7660
主要为	-7661
党委	-7662
提倡	-7663
维拉	-7664
翻唱	-7665
oss	-7666
接下来	-7667
avid	-7668
当地居民	-7669
▁史	-7670
▁叶	-7671
▁麦	-7672
当然	-7673
所知	-7674
罗门	-7675
年球季	-7676
彻斯特	-7677
有很多	-7678
也将	-7679
号码	-7680
执教	-7681
的头	-7682
职工	-7683
看起来	-7684
民籍	-7685
县的城市	-7686
▁蒙	-7687
表彰	-7688
南部的	-7689
的结构	-7690
资格赛	-7691
前夕	-7692
汉堡	-7693
App	-7694
岁以下	-7695
中国国家	-7696
内蒙古自治区	-7697
ha	-7698
悉尼	-7699
日以	-7700
滑冰	-7701
的光	-7702
落后	-7703
应用于	-7704
▁by	-7705
两项	-7706
患有	-7707
马场	-7708
年国际	-7709
围棋	-7710
接待	-7711
更名	-7712
顶点	-7713
▁位于	-7714
德里克	-7715
文中	-7716
深受	-7717
宰相	-7718
木材	-7719
纳西	-7720
者为	-7721
克拉克	-7722
▁比赛	-7723
阿基坦	-7724
应用程序	-7725
激素	-7726
电站	-7727
顶部	-7728
伦堡	-7729
历经	-7730
州人	-7731
生前	-7732
离心	-7733
编程	-7734
ava	-7735
北卡罗莱纳州	-7736
目录	-7737
era	-7738
拍摄的	-7739
▁弗	-7740
二等	-7741
垒打	-7742
华侨	-7743
变量	-7744
开创	-7745
区的负责管辖	-7746
宪兵	-7747
战机	-7748
拳击	-7749
辩护	-7750
并担任	-7751
航站楼	-7752
较高的	-7753
会见	-7754
国小	-7755
战俘	-7756
瀑布	-7757
别名	-7758
观塘	-7759
信奉	-7760
全美	-7761
青山	-7762
ari	-7763
建造的	-7764
会将	-7765
摩洛	-7766
曾与	-7767
湿地	-7768
流行音乐	-7769
一对	-7770
州和	-7771
巩固	-7772
捐款	-7773
端的	-7774
置于	-7775
的事情	-7776
不等	-7777
分数	-7778
小于	-7779
涡轮	-7780
相近	-7781
索恩	-7782
气象厅	-7783
的权利	-7784
他的父亲	-7785
网球公开赛	-7786
丧生	-7787
军用	-7788
各省	-7789
奥利	-7790
box	-7791
为主要	-7792
日平均	-7793
设立的	-7794
▁Comp	-7795
▁康	-7796
北伐	-7797
固体	-7798
奇幻	-7799
改用	-7800
玛格	-7801
莉亚	-7802
马恩	-7803
部分的	-7804
台的	-7805
同事	-7806
场上	-7807
就职	-7808
深夜	-7809
空调	-7810
ru	-7811
幕后	-7812
殿试	-7813
居于	-7814
条纹	-7815
每月	-7816
有一些	-7817
加里	-7818
动机	-7819
恶魔	-7820
林肯	-7821
签下	-7822
也开始	-7823
的声音	-7824
以及其他	-7825
兄长	-7826
电机	-7827
▁De	-7828
引发了	-7829
萨诸塞	-7830
成为一个	-7831
oo	-7832
决心	-7833
航海	-7834
数学家	-7835
面积约	-7836
千人	-7837
当初	-7838
满贯	-7839
的单	-7840
站内	-7841
阶层	-7842
失业	-7843
熟悉	-7844
风速	-7845
不同于	-7846
为主的	-7847
是当地	-7848
党委书记	-7849
型态	-7850
开封	-7851
日与	-7852
织田	-7853
闽南	-7854
人类的	-7855
▁New	-7856
但被	-7857
多家	-7858
庄为	-7859
港澳	-7860
遵循	-7861
代表队	-7862
区议员	-7863
卢森堡	-7864
▁鲁	-7865
别墅	-7866
各界	-7867
Saint	-7868
官兵	-7869
特雷	-7870
钻石	-7871
龙类	-7872
的一场	-7873
的法律	-7874
系列赛	-7875
出资	-7876
利尼	-7877
化工	-7878
合金	-7879
木齐	-7880
永乐	-7881
现金	-7882
硬棘	-7883
维莱	-7884
那时	-7885
Mic	-7886
▁关于	-7887
形势	-7888
民兵	-7889
种加	-7890
之一的	-7891
开发区	-7892
科下的一个属	-7893
▁或	-7894
搭乘	-7895
结盟	-7896
运会	-7897
一说	-7898
不幸	-7899
俄语	-7900
曼联	-7901
珍珠	-7902
轻轨	-7903
都能	-7904
enc	-7905
为中心	-7906
四名	-7907
女人	-7908
德利	-7909
进入了	-7910
出局	-7911
反复	-7912
太祖	-7913
翌日	-7914
阿密	-7915
战斗中	-7916
ike	-7917
了一场	-7918
可用于	-7919
岛式月台	-7920
大门	-7921
奖的	-7922
身高	-7923
飞船	-7924
被选为	-7925
记者会	-7926
科罗拉多	-7927
CE	-7928
五百	-7929
收回	-7930
脂肪	-7931
车身	-7932
过往	-7933
地方政府	-7934
Be	-7935
新兴	-7936
作品中	-7937
的军队	-7938
Jo	-7939
对该	-7940
所说	-7941
武昌	-7942
相传	-7943
护理	-7944
长老	-7945
马利	-7946
的一所	-7947
新华	-7948
流程	-7949
生素	-7950
船舶	-7951
一点	-7952
保健	-7953
华纳	-7954
张家	-7955
演习	-7956
▁Con	-7957
研究人员	-7958
伯恩	-7959
可供	-7960
派往	-7961
远离	-7962
驻守	-7963
事物	-7964
出租	-7965
县道	-7966
学金	-7967
继承人	-7968
纽约时报	-7969
中央电视台	-7970
we	-7971
不论	-7972
克鲁	-7973
和中	-7974
新村	-7975
盟友	-7976
节目中	-7977
中国科学院	-7978
科的一个属	-7979
常被	-7980
民意	-7981
焦点	-7982
的无	-7983
瞄准	-7984
致命	-7985
Mac	-7986
的观点	-7987
县的非建制地区	-7988
专线	-7989
在校	-7990
末年	-7991
节点	-7992
见证	-7993
发现了此天体	-7994
──	-7995
回收	-7996
防线	-7997
深圳市	-7998
▁毛	-7999
例外	-8000
ult	-8001
东部大区	-8002
中央委员会	-8003
▁泰	-8004
安达	-8005
故此	-8006
马匹	-8007
混淆	-8008
碎片	-8009
绝大多数	-8010
更有	-8011
答应	-8012
▁赫	-8013
翻新	-8014
草地	-8015
转入	-8016
▁一般	-8017
电气化	-8018
的一属	-8019
Bl	-8020
喇嘛	-8021
托夫	-8022
普京	-8023
碰撞	-8024
路上	-8025
CST	-8026
ott	-8027
亚利桑	-8028
该市镇	-8029
武装部队	-8030
▁梁	-8031
入狱	-8032
恶劣	-8033
给出	-8034
▁其后	-8035
上获得	-8036
关系的	-8037
出现于	-8038
风格的	-8039
ال	-8040
▁郭	-8041
发放	-8042
天王	-8043
榜单	-8044
生育	-8045
纪律	-8046
ype	-8047
不知道	-8048
的一名	-8049
香港政府	-8050
区议会选举	-8051
云林	-8052
局面	-8053
日晚上	-8054
栖息深度	-8055
GO	-8056
危害	-8057
囚犯	-8058
将该	-8059
这么	-8060
酋长	-8061
马哈	-8062
RS	-8063
一事	-8064
传动	-8065
布伦	-8066
下议院	-8067
服务的	-8068
赛冠军	-8069
体内	-8070
残疾人奥林匹克运动会	-8071
▁佩	-8072
地表	-8073
将被	-8074
里希	-8075
五大	-8076
预警	-8077
企业家	-8078
描述了	-8079
▁基	-8080
一架	-8081
上层	-8082
咸丰	-8083
环节	-8084
交通部	-8085
edia	-8086
的邮政编码为	-8087
一时	-8088
位列	-8089
减轻	-8090
▁发展	-8091
是巴西	-8092
斯洛伐克	-8093
在线	-8094
的可	-8095
皮尔	-8096
警务	-8097
下去	-8098
年从	-8099
▁as	-8100
▁Man	-8101
全新	-8102
同期	-8103
药品	-8104
include	-8105
▁到	-8106
实业	-8107
渔业	-8108
迈阿密	-8109
化学式为	-8110
街道办事处	-8111
全民	-8112
赤道	-8113
斯科特	-8114
服务器	-8115
中部时区	-8116
集团有限公司	-8117
倡议	-8118
姓名	-8119
时空	-8120
杀手	-8121
监测	-8122
可能的	-8123
职人员	-8124
ream	-8125
阿肯色州	-8126
带着	-8127
罗斯福	-8128
入学	-8129
客机	-8130
进化	-8131
鉴于	-8132
alk	-8133
立大学	-8134
和水	-8135
在东	-8136
对立	-8137
普里	-8138
法拉	-8139
生日	-8140
系数	-8141
宣布将	-8142
roid	-8143
莱昂	-8144
Com	-8145
▁Is	-8146
▁后来	-8147
了一份	-8148
安东尼	-8149
的核心	-8150
属的一种	-8151
样的	-8152
赞扬	-8153
也被称为	-8154
的基础上	-8155
年人口普查	-8156
TP	-8157
北韩	-8158
大力	-8159
小镇	-8160
街区	-8161
讲话	-8162
足总	-8163
改编为	-8164
的个人	-8165
专栏	-8166
分歧	-8167
原料	-8168
否决	-8169
皇太	-8170
诸侯	-8171
CDT	-8172
夏朗德	-8173
▁施	-8174
其间	-8175
只好	-8176
方针	-8177
▁Ad	-8178
不太	-8179
安德鲁	-8180
总额为	-8181
color	-8182
三层	-8183
追随	-8184
国家级	-8185
orth	-8186
世界各地	-8187
▁纳	-8188
是将	-8189
编译	-8190
lix	-8191
可能指	-8192
贵州省	-8193
北路	-8194
影集	-8195
待遇	-8196
替补	-8197
栖息地	-8198
CS	-8199
弗吉	-8200
氨基	-8201
流放	-8202
可以被	-8203
收录于	-8204
注意到	-8205
中国政府	-8206
即北美中部时区	-8207
外籍	-8208
威斯	-8209
是被	-8210
第一季	-8211
管理的	-8212
NO	-8213
后裔	-8214
站和	-8215
边疆	-8216
阿克	-8217
ave	-8218
为热带	-8219
的数量	-8220
获得的	-8221
可以使用	-8222
TR	-8223
夫妻	-8224
故居	-8225
旁边	-8226
法学院	-8227
信用	-8228
审理	-8229
操纵	-8230
琳娜	-8231
▁发行	-8232
科学技术	-8233
改设	-8234
阿斯	-8235
由美国	-8236
▁i	-8237
虐待	-8238
该年	-8239
为香港	-8240
亚热带	-8241
制造的	-8242
初始	-8243
战事	-8244
罗伯	-8245
罢免	-8246
迁入	-8247
配套	-8248
离开了	-8249
还有一	-8250
联邦政府	-8251
Ne	-8252
▁至	-8253
二层	-8254
六十	-8255
最快	-8256
林业	-8257
标签	-8258
组的	-8259
阿塞拜疆	-8260
与前	-8261
军第	-8262
刊物	-8263
创业	-8264
狩猎	-8265
莲花	-8266
控制的	-8267
约翰逊	-8268
主播	-8269
埃塞	-8270
将自	-8271
格罗	-8272
西蒙	-8273
ham	-8274
的建议	-8275
摩泽尔省	-8276
分割	-8277
罗杰	-8278
他成为	-8279
撞击坑	-8280
元件	-8281
官职	-8282
温哥	-8283
琼斯	-8284
lat	-8285
的人士	-8286
崛起	-8287
斑点	-8288
联赛冠军	-8289
乌尔	-8290
宇航	-8291
烧毁	-8292
的机	-8293
金钟	-8294
ael	-8295
bur	-8296
公正	-8297
显然	-8298
阻碍	-8299
邓小平	-8300
制服	-8301
和解	-8302
ral	-8303
印地安纳州	-8304
▁注	-8305
无需	-8306
▁随著	-8307
通常会	-8308
同知	-8309
和第	-8310
莱特	-8311
中发现	-8312
的政策	-8313
但这	-8314
白金	-8315
讲师	-8316
赞成	-8317
斯里兰卡	-8318
大东部大区	-8319
先驱	-8320
众议员	-8321
占领了	-8322
增至	-8323
宋朝	-8324
质的	-8325
ino	-8326
▁概述	-8327
参与者	-8328
马来亚	-8329
坐标	-8330
收获	-8331
最少	-8332
畅销	-8333
▁Ro	-8334
ement	-8335
音乐家	-8336
人均	-8337
空降	-8338
又称为	-8339
成员国	-8340
温哥华	-8341
游击队	-8342
右侧	-8343
支出	-8344
桂林	-8345
ref	-8346
已经被	-8347
部作品	-8348
ke	-8349
宇文	-8350
结识	-8351
适用	-8352
itt	-8353
乐坛	-8354
左侧	-8355
接驳	-8356
爵位	-8357
部和	-8358
▁同年	-8359
Facebook	-8360
仅在	-8361
传入	-8362
天地	-8363
神的	-8364
的地铁	-8365
再生	-8366
难度	-8367
霍夫	-8368
▁印度	-8369
摩洛哥	-8370
ilver	-8371
亚马	-8372
分级	-8373
就此	-8374
扬州	-8375
江县	-8376
rag	-8377
只有一	-8378
巴达	-8379
此处	-8380
清晰	-8381
约束	-8382
订购	-8383
的特有植物	-8384
七个	-8385
之父	-8386
战死	-8387
神学	-8388
设置的	-8389
iver	-8390
align	-8391
妈妈	-8392
接到	-8393
登录	-8394
Game	-8395
▁迪	-8396
人事	-8397
加泰	-8398
在高	-8399
岛式	-8400
融入	-8401
eam	-8402
已成为	-8403
的相关	-8404
较小的	-8405
皇家海军	-8406
相互作用	-8407
们的	-8408
古城	-8409
哈萨	-8410
山镇	-8411
撤回	-8412
红旗	-8413
约旦	-8414
群的	-8415
足够的	-8416
上法兰西	-8417
中央军委	-8418
独裁	-8419
Par	-8420
取代了	-8421
可容纳	-8422
种加词	-8423
语言的	-8424
这一点	-8425
三百	-8426
制动	-8427
磁场	-8428
除非	-8429
htt	-8430
大都会	-8431
投入使用	-8432
博尔	-8433
后勤	-8434
完结	-8435
min	-8436
第二天	-8437
基础上	-8438
乌鲁木齐	-8439
亦会	-8440
平坦	-8441
地狱	-8442
宝石	-8443
王国的	-8444
上法兰西大区	-8445
ternational	-8446
Or	-8447
VID	-8448
卡斯蒂	-8449
毕业生	-8450
ft	-8451
ан	-8452
属性	-8453
考量	-8454
酒吧	-8455
民主派	-8456
ya	-8457
▁江	-8458
和马	-8459
接力	-8460
正当	-8461
赛道	-8462
资本主义	-8463
za	-8464
不应	-8465
艺名	-8466
超市	-8467
专注于	-8468
世纪中	-8469
型机车	-8470
历史建筑	-8471
东风	-8472
去了	-8473
平县	-8474
日间	-8475
交叉口	-8476
并止于	-8477
努斯	-8478
和南	-8479
因病	-8480
的比	-8481
的统治	-8482
出境	-8483
占有	-8484
是其	-8485
合作的	-8486
berg	-8487
ouse	-8488
上场	-8489
整数	-8490
汗国	-8491
日公布	-8492
属的动物	-8493
利润	-8494
墓地	-8495
最新	-8496
lan	-8497
▁Co	-8498
为什么	-8499
有助于	-8500
的变化	-8501
官方网站	-8502
民主主义	-8503
ич	-8504
中途	-8505
为自	-8506
曝光	-8507
罗宾	-8508
关押	-8509
显得	-8510
NHK	-8511
的英国	-8512
线是	-8513
都要	-8514
重播	-8515
sch	-8516
的家庭	-8517
▁NGC	-8518
He	-8519
▁诺	-8520
命中	-8521
战的	-8522
枪管	-8523
该书	-8524
ene	-8525
小时内	-8526
半球	-8527
厚的	-8528
港区	-8529
艾尔	-8530
同一个	-8531
探测器	-8532
斯特拉	-8533
线路口	-8534
ор	-8535
先行	-8536
办学	-8537
接手	-8538
雄性	-8539
text	-8540
欣赏	-8541
派系	-8542
诺曼底	-8543
ject	-8544
IL	-8545
伊万	-8546
优化	-8547
加密	-8548
攻克	-8549
敌军	-8550
贩卖	-8551
▁光绪	-8552
国防军	-8553
从小	-8554
是他	-8555
论述	-8556
波罗的海	-8557
亚斯	-8558
边为	-8559
设立了	-8560
数次	-8561
注射	-8562
爪哇	-8563
代表作	-8564
她曾代表	-8565
候补	-8566
几种	-8567
哈根	-8568
总值	-8569
日文	-8570
水准	-8571
钓鱼	-8572
的反应	-8573
剥夺	-8574
山谷	-8575
才会	-8576
灵顿	-8577
之后在	-8578
仍是	-8579
匈奴	-8580
和高	-8581
氨酸	-8582
河东	-8583
西岸	-8584
理工大学	-8585
▁School	-8586
武士	-8587
风力	-8588
一方面	-8589
奖学金	-8590
日本气象厅	-8591
依法	-8592
前任	-8593
处分	-8594
小孩	-8595
的下	-8596
数据库	-8597
占比	-8598
左派	-8599
the	-8600
▁Or	-8601
发生后	-8602
三十四年	-8603
交会	-8604
国公	-8605
推理	-8606
暴雨	-8607
棕色	-8608
橡胶	-8609
警备	-8610
进修	-8611
ena	-8612
决定将	-8613
歌舞	-8614
洋基	-8615
而有	-8616
腹部	-8617
苏军	-8618
采集	-8619
的过程中	-8620
ер	-8621
传达	-8622
倾斜	-8623
弯曲	-8624
溪流	-8625
篮板	-8626
西德	-8627
ila	-8628
传统上	-8629
额外的	-8630
应用程式	-8631
怎么	-8632
担忧	-8633
拨款	-8634
帮助下	-8635
的第一个	-8636
人所	-8637
害怕	-8638
对待	-8639
水道	-8640
▁Car	-8641
该物种的模式产地	-8642
乃至	-8643
备受	-8644
常数	-8645
朝阳	-8646
末端	-8647
清晨	-8648
form	-8649
only	-8650
全垒打	-8651
年电影	-8652
的控制	-8653
第十四	-8654
My	-8655
在自	-8656
煤矿	-8657
著的	-8658
高速铁路	-8659
原定	-8660
夺回	-8661
米勒	-8662
赛会	-8663
New	-8664
动物的	-8665
目的地	-8666
乘车	-8667
磷酸	-8668
部件	-8669
时表示	-8670
的价格	-8671
西日本	-8672
文艺复兴	-8673
▁费	-8674
年秋	-8675
庇护	-8676
满意	-8677
的天	-8678
部下	-8679
的语言	-8680
被评为	-8681
亦于	-8682
分局	-8683
各有	-8684
吉隆	-8685
演说	-8686
马尼	-8687
ney	-8688
江户时代	-8689
经纪公司	-8690
合适	-8691
法师	-8692
罗曼	-8693
长时间	-8694
鲈形目	-8695
篮球运动员	-8696
与新	-8697
想到	-8698
▁Br	-8699
哈尔科夫	-8700
ction	-8701
EL	-8702
总管	-8703
打入	-8704
民航	-8705
者在	-8706
而死	-8707
说话	-8708
出身于	-8709
划分为	-8710
年轻人	-8711
日发售	-8712
脱维亚	-8713
千叶	-8714
ero	-8715
捷克斯	-8716
后代	-8717
多瓦	-8718
植被	-8719
特和	-8720
舞台剧	-8721
用品	-8722
被判	-8723
Mich	-8724
一处	-8725
揭露	-8726
登堡	-8727
▁事件	-8728
弗拉基	-8729
影响的	-8730
rosoft	-8731
▁杰	-8732
冲锋	-8733
明的	-8734
二氧化碳	-8735
Je	-8736
一组	-8737
两层	-8738
湾仔	-8739
颗粒	-8740
▁可	-8741
的和	-8742
net	-8743
▁她	-8744
一艘	-8745
亦被	-8746
削弱	-8747
卜杜	-8748
西尔	-8749
阳性	-8750
▁该地	-8751
意味著	-8752
巡回演唱会	-8753
AA	-8754
内务	-8755
帕克	-8756
普利	-8757
flix	-8758
▁六	-8759
事迹	-8760
八个	-8761
审议	-8762
监控	-8763
▁上海	-8764
面积约为	-8765
会合	-8766
列斯	-8767
在外	-8768
尼基	-8769
白垩	-8770
贝拉	-8771
告示牌	-8772
条件下	-8773
的任务	-8774
社会党	-8775
结束了	-8776
达科他州	-8777
加利福尼亚	-8778
介于	-8779
布什	-8780
聚会	-8781
ATP	-8782
捷克斯洛	-8783
中环	-8784
拦截	-8785
的南	-8786
巴拿马	-8787
不用	-8788
早已	-8789
铃木	-8790
▁一个	-8791
性行为	-8792
▁j	-8793
宗室	-8794
拓扑	-8795
提起	-8796
摄政	-8797
月间	-8798
索姆	-8799
维希	-8800
▁随着	-8801
大略	-8802
派人	-8803
陈列	-8804
的制作	-8805
该建筑	-8806
iu	-8807
奥德	-8808
洞穴	-8809
的老	-8810
礼仪	-8811
神庙	-8812
鹦鹉	-8813
保留了	-8814
大屠杀	-8815
引起的	-8816
收录了	-8817
第一任	-8818
政治委员	-8819
ba	-8820
事发	-8821
关心	-8822
务段	-8823
引力	-8824
护航	-8825
曼谷	-8826
高宗	-8827
oon	-8828
纳米	-8829
SN	-8830
佩斯	-8831
全程	-8832
年份	-8833
演变	-8834
蒂斯	-8835
部位	-8836
重型	-8837
骚扰	-8838
十九年	-8839
宣誓	-8840
文书	-8841
年完成	-8842
战列舰	-8843
街道下辖以下地区	-8844
自从	-8845
合共	-8846
构想	-8847
煤炭	-8848
▁现代	-8849
一直到	-8850
他担任	-8851
center	-8852
小项	-8853
来了	-8854
精选	-8855
▁wh	-8856
内政部	-8857
副院长	-8858
的纪录	-8859
RO	-8860
RT	-8861
损伤	-8862
行李	-8863
▁Windows	-8864
▁乔	-8865
清廷	-8866
金钱	-8867
新泽西	-8868
双重	-8869
藤原	-8870
起草	-8871
的最大	-8872
高等法院	-8873
三条	-8874
垄断	-8875
肯尼	-8876
诠释	-8877
▁气候	-8878
影响了	-8879
香港电影	-8880
MC	-8881
更好	-8882
穆尔	-8883
铸造	-8884
东部时区	-8885
戏院	-8886
纳的	-8887
身边	-8888
与日本	-8889
出版了	-8890
▁colspan	-8891
传佛教	-8892
有效的	-8893
征召	-8894
Con	-8895
两年后	-8896
中也	-8897
底部	-8898
扩充	-8899
所在的	-8900
新疆维吾尔	-8901
自愿	-8902
在全球	-8903
第一代	-8904
阿基坦大区	-8905
▁希	-8906
不敢	-8907
得奖	-8908
微分	-8909
流入	-8910
深水	-8911
速率	-8912
的球员	-8913
reat	-8914
出品	-8915
双向	-8916
耶律	-8917
舰只	-8918
▁欧洲	-8919
中南部	-8920
布莱恩	-8921
染色体	-8922
高尔夫	-8923
Twit	-8924
巴特	-8925
掩护	-8926
旗舰	-8927
服饰	-8928
评级	-8929
一年后	-8930
一直是	-8931
总统府	-8932
专科学校	-8933
上演	-8934
传送	-8935
华德	-8936
度过	-8937
弗莱	-8938
映射	-8939
窗口	-8940
结尾	-8941
编成	-8942
▁德国	-8943
父亲的	-8944
▁富	-8945
岭南	-8946
温和	-8947
预言	-8948
的一个区	-8949
加索	-8950
降级	-8951
季军	-8952
模糊	-8953
玩法	-8954
的组织	-8955
严厉	-8956
变体	-8957
彩虹	-8958
换取	-8959
疯狂	-8960
活跃于	-8961
VA	-8962
出色	-8963
尚有	-8964
的车	-8965
作为一个	-8966
图曼	-8967
在场	-8968
天启	-8969
年及	-8970
特急	-8971
的二	-8972
雷诺	-8973
以来的	-8974
可以是	-8975
在德国	-8976
▁光	-8977
▁松	-8978
军中	-8979
南投	-8980
大火	-8981
市级	-8982
总署	-8983
皆有	-8984
的文章	-8985
一体	-8986
代价	-8987
开采	-8988
很高	-8989
江市	-8990
ven	-8991
的理论	-8992
世宗	-8993
华南	-8994
合资	-8995
后面	-8996
大和	-8997
年仅	-8998
的副	-8999
福克	-9000
评分	-9001
县和	-9002
排序	-9003
经历了	-9004
Linux	-9005
四周	-9006
彩色	-9007
抽象	-9008
水泥	-9009
特罗	-9010
饮料	-9011
音乐剧	-9012
Wh	-9013
五人	-9014
学派	-9015
强奸	-9016
护士	-9017
撤出	-9018
裁决	-9019
门外	-9020
发现于	-9021
特殊的	-9022
第二次世界大战期间	-9023
DR	-9024
个案	-9025
北上	-9026
是用	-9027
王的	-9028
新阿基坦大区	-9029
之用	-9030
随后在	-9031
京师	-9032
只会	-9033
土木	-9034
家长	-9035
装有	-9036
▁本鱼	-9037
住所	-9038
处死	-9039
将此	-9040
萨摩	-9041
ira	-9042
▁所有	-9043
生活的	-9044
世界遗产	-9045
位素	-9046
内外	-9047
县市	-9048
该舰	-9049
uss	-9050
▁or	-9051
在国际	-9052
HT	-9053
军衔	-9054
故乡	-9055
番茄	-9056
真理	-9057
讷省	-9058
ield	-9059
ол	-9060
保定	-9061
实用	-9062
富有	-9063
归还	-9064
景区	-9065
氟化	-9066
温暖	-9067
ese	-9068
法国的	-9069
德克萨斯州	-9070
其次	-9071
哈顿	-9072
奉天	-9073
很有	-9074
排球	-9075
▁学校	-9076
产阶级	-9077
的铁路	-9078
黄埔	-9079
另一位	-9080
追溯至	-9081
ин	-9082
动的	-9083
射手	-9084
概率	-9085
通称	-9086
主要以	-9087
的一员	-9088
东站	-9089
的正	-9090
动物园	-9091
当年的	-9092
房地产	-9093
ount	-9094
▁早年生活	-9095
今属	-9096
助手	-9097
巡航	-9098
摩根	-9099
▁嘉靖	-9100
▁著作	-9101
侵蚀	-9102
公墓	-9103
吉利	-9104
美食	-9105
▁万历	-9106
发展出	-9107
和政治	-9108
多年的	-9109
尔斯克	-9110
国家队参加	-9111
▁World	-9112
中和	-9113
创刊	-9114
压制	-9115
司徒	-9116
疑似	-9117
突袭	-9118
赞赏	-9119
迎接	-9120
万人次	-9121
西伯利亚	-9122
AI	-9123
三星	-9124
抵制	-9125
星云	-9126
远的	-9127
EDT	-9128
还可以	-9129
by	-9130
代尔	-9131
军政	-9132
雌性	-9133
过去的	-9134
都御史	-9135
的一个县	-9136
假日	-9137
号召	-9138
学业	-9139
延期	-9140
清理	-9141
组件	-9142
erg	-9143
其他人	-9144
利比亚	-9145
吉隆坡	-9146
英联邦	-9147
关税	-9148
加剧	-9149
实习	-9150
清洁	-9151
登山	-9152
硫酸	-9153
之所以	-9154
优异	-9155
起兵	-9156
饲养	-9157
公司在	-9158
葡萄酒	-9159
▁that	-9160
五代	-9161
▁名称	-9162
史蒂芬	-9163
▁Stud	-9164
onlyinclude	-9165
人口的	-9166
▁许	-9167
信托	-9168
徐州	-9169
逃脱	-9170
中获得	-9171
分别于	-9172
所需的	-9173
停办	-9174
时为	-9175
way	-9176
发表声明	-9177
▁尼	-9178
低地	-9179
戴维	-9180
祖母	-9181
票价	-9182
连串	-9183
con	-9184
生长在	-9185
的权力	-9186
皮埃尔	-9187
集中营	-9188
佛罗里达	-9189
巴比	-9190
惯例	-9191
星球	-9192
创造了	-9193
技术的	-9194
光禄	-9195
总数	-9196
▁at	-9197
根据地	-9198
结束时	-9199
台大	-9200
拓跋	-9201
等同	-9202
简易	-9203
对应的	-9204
是通过	-9205
研究者	-9206
即北美东部时区	-9207
ое	-9208
三千	-9209
大纲	-9210
指南	-9211
料理	-9212
罚款	-9213
营地	-9214
▁许多	-9215
个月后	-9216
的力量	-9217
不含	-9218
华裔	-9219
契约	-9220
主打歌	-9221
监察御史	-9222
以致	-9223
刺杀	-9224
培育	-9225
屋苑	-9226
纠纷	-9227
高压	-9228
AKB	-9229
air	-9230
南京市	-9231
岁人口	-9232
峡谷	-9233
月后	-9234
班机	-9235
雇佣	-9236
家族的	-9237
第一轮	-9238
尽管如此	-9239
时间逢星期	-9240
年号	-9241
清末	-9242
电磁	-9243
▁le	-9244
爱好者	-9245
教义	-9246
民事	-9247
避难	-9248
郡的	-9249
北站	-9250
因在	-9251
格鲁吉亚	-9252
阿尔及利亚	-9253
和其	-9254
街庄	-9255
逃往	-9256
iro	-9257
▁作品	-9258
法西斯	-9259
所使用的	-9260
接种	-9261
狭窄	-9262
处处长	-9263
标准的	-9264
了一系列	-9265
上空	-9266
片的	-9267
首歌	-9268
ery	-9269
电影院	-9270
的地下	-9271
联盟的	-9272
Netflix	-9273
UB	-9274
▁神	-9275
汉口	-9276
评选	-9277
mus	-9278
嫌疑	-9279
疗法	-9280
老虎	-9281
解析	-9282
▁描述	-9283
间隔	-9284
大将	-9285
年内	-9286
摆脱	-9287
缩小	-9288
营造	-9289
音节	-9290
风云	-9291
魁北	-9292
核酸检测	-9293
ville	-9294
长崎	-9295
▁国家	-9296
可汗	-9297
向前	-9298
在对	-9299
塔利	-9300
报名	-9301
美的	-9302
葬礼	-9303
ors	-9304
▁Mc	-9305
世纪时	-9306
最长的	-9307
高级中学	-9308
种种	-9309
获颁	-9310
och	-9311
了一项	-9312
完成后	-9313
曼哈顿	-9314
遇到了	-9315
该区	-9316
连锁	-9317
鉴定	-9318
马上	-9319
▁之后	-9320
感兴趣	-9321
武汉市	-9322
的态度	-9323
▁图	-9324
公所	-9325
lin	-9326
uro	-9327
半导体	-9328
和英国	-9329
计划于	-9330
年总人口	-9331
MO	-9332
塔拉	-9333
学历	-9334
矿业	-9335
玛格丽	-9336
ij	-9337
到来	-9338
并从	-9339
既有	-9340
早于	-9341
治愈	-9342
洛林	-9343
潜水	-9344
笔记	-9345
他表示	-9346
的大小	-9347
的状态	-9348
哈萨克斯坦	-9349
该省份为法国北部	-9350
氏的	-9351
硬件	-9352
蔬菜	-9353
超人	-9354
its	-9355
单曲榜	-9356
府知府	-9357
步兵师	-9358
▁end	-9359
阿拉巴马	-9360
▁蔡	-9361
前期	-9362
在下	-9363
生殖	-9364
研究的	-9365
拉脱维亚	-9366
山上	-9367
最长	-9368
副局长	-9369
变成了	-9370
淡水鱼	-9371
的版本	-9372
转化为	-9373
▁夏	-9374
主机	-9375
体字	-9376
学界	-9377
最好	-9378
缓解	-9379
获准	-9380
公里处	-9381
加龙省	-9382
因为它	-9383
初中	-9384
增援	-9385
改成	-9386
而已	-9387
路与	-9388
采纳	-9389
博览会	-9390
在全国	-9391
是一所	-9392
密歇根州	-9393
▁历史沿革	-9394
位于该国北部	-9395
Hz	-9396
披露	-9397
赛驹	-9398
fer	-9399
拒绝了	-9400
的风险	-9401
科维奇	-9402
等人的	-9403
马克思主义	-9404
▁除	-9405
之事	-9406
失利	-9407
接纳	-9408
金马	-9409
段时间	-9410
平方英里	-9411
战线	-9412
省委	-9413
轻松	-9414
ism	-9415
▁an	-9416
强烈的	-9417
是瑞士	-9418
配音员	-9419
外交部长	-9420
投入服务	-9421
波多	-9422
玻利	-9423
一套	-9424
低压	-9425
卡通	-9426
原声	-9427
可惜	-9428
汉人	-9429
首部	-9430
三十年	-9431
不过在	-9432
颗恒星	-9433
iversity	-9434
宁县	-9435
征收	-9436
要素	-9437
圣彼得	-9438
灌溉	-9439
贩售	-9440
▁TV	-9441
下属的	-9442
在这些	-9443
的特殊	-9444
韩民国	-9445
的一系列	-9446
出入	-9447
前去	-9448
多达	-9449
姿态	-9450
支配	-9451
检讨	-9452
理性	-9453
发电机	-9454
的资料	-9455
被列入	-9456
角色的	-9457
鄂图曼	-9458
分布于南美洲	-9459
ky	-9460
原作	-9461
复出	-9462
师从	-9463
慢慢	-9464
过来	-9465
的领导	-9466
▁Ser	-9467
占地面积	-9468
中止	-9469
全省	-9470
▁sp	-9471
万美元的	-9472
▁吕	-9473
一片	-9474
单纯	-9475
在海	-9476
巨星	-9477
攻陷	-9478
税收	-9479
补偿	-9480
进出	-9481
开发者	-9482
音乐学院	-9483
做的	-9484
分会	-9485
北至	-9486
南面	-9487
的石	-9488
豪华	-9489
集成	-9490
第二大	-9491
egin	-9492
共用	-9493
巴里	-9494
断层	-9495
斯德	-9496
旅馆	-9497
▁外部	-9498
▁var	-9499
临近	-9500
伴侣	-9501
句话	-9502
墓葬	-9503
沿著	-9504
红外	-9505
西站	-9506
▁id	-9507
证券交易所	-9508
多处	-9509
科长	-9510
ars	-9511
式建筑	-9512
第二代	-9513
是南极洲的	-9514
关卡	-9515
多少	-9516
清除	-9517
开始后	-9518
ст	-9519
女士	-9520
年第	-9521
应急	-9522
的文化	-9523
乔治亚州	-9524
部分地区	-9525
忽略	-9526
八路军	-9527
带来了	-9528
年建成	-9529
的需求	-9530
镇区是位于美国	-9531
二期	-9532
承受	-9533
散文	-9534
没收	-9535
灌木	-9536
站名	-9537
签名	-9538
举办了	-9539
是当时	-9540
的事件	-9541
的规定	-9542
交通大学	-9543
委员会主任	-9544
录音室专辑	-9545
新疆维吾尔自治区	-9546
件事	-9547
山站	-9548
师团	-9549
直流	-9550
邪恶	-9551
arg	-9552
ora	-9553
年代为	-9554
普通话	-9555
年度最佳	-9556
的可能性	-9557
分泌	-9558
切断	-9559
珍妮	-9560
常用的	-9561
特别是在	-9562
学说	-9563
感受	-9564
牧场	-9565
菌属	-9566
贪污	-9567
顾客	-9568
正式成立	-9569
之间的关系	-9570
▁花	-9571
写了	-9572
参议	-9573
失望	-9574
疼痛	-9575
Col	-9576
南北朝	-9577
赛事中	-9578
二十二年	-9579
十余	-9580
搬迁	-9581
收益	-9582
礼物	-9583
并要求	-9584
更好的	-9585
有人口	-9586
法兰克福	-9587
中方	-9588
受邀	-9589
史称	-9590
游乐	-9591
女性为	-9592
年进入	-9593
找到了	-9594
的一部	-9595
二十三年	-9596
西藏自治区	-9597
捷克斯洛伐克	-9598
丽的	-9599
托勒	-9600
拼音	-9601
搜寻	-9602
漫威	-9603
联会	-9604
arm	-9605
一个人	-9606
的部队	-9607
届全国人大代表	-9608
疏散	-9609
移至	-9610
话题	-9611
一定的	-9612
中央政府	-9613
单行	-9614
吉祥	-9615
San	-9616
圣保罗	-9617
蒋中正	-9618
出去	-9619
教室	-9620
年参加	-9621
最受欢迎	-9622
修筑	-9623
德州	-9624
林中	-9625
森特	-9626
广播电视	-9627
LC	-9628
TE	-9629
▁韩	-9630
伯里	-9631
侦探	-9632
密集	-9633
步骤	-9634
然而在	-9635
父亲是	-9636
▁des	-9637
国共内战	-9638
尼日利亚	-9639
会馆	-9640
放大	-9641
的安全	-9642
观察到	-9643
克西塔尼大区	-9644
一台	-9645
一批	-9646
招生	-9647
笔名	-9648
两度	-9649
中日	-9650
在阿	-9651
并把	-9652
期待	-9653
沃克	-9654
生平	-9655
生理	-9656
长者	-9657
Android	-9658
为第	-9659
祈祷	-9660
多年来	-9661
二十一年	-9662
ision	-9663
两家	-9664
佥事	-9665
共青	-9666
单车	-9667
总队	-9668
春季	-9669
极其	-9670
构建	-9671
多样性	-9672
魁北克	-9673
外交关系	-9674
IU	-9675
▁被	-9676
世俗	-9677
升至	-9678
年将	-9679
而出	-9680
里约	-9681
隋朝	-9682
更高的	-9683
足球会	-9684
是一颗恒星	-9685
上是	-9686
厕所	-9687
变动	-9688
西汉	-9689
亚特兰	-9690
该项目	-9691
开枪	-9692
深海	-9693
狙击	-9694
致使	-9695
中使用	-9696
德米	-9697
手持	-9698
威尔逊	-9699
庄为邻	-9700
是一条	-9701
马拉松	-9702
气候变化	-9703
oz	-9704
各方	-9705
手下	-9706
长轴	-9707
按察司	-9708
还没有	-9709
新冠肺炎	-9710
亚太	-9711
投诉	-9712
般的	-9713
辅音	-9714
防疫	-9715
elle	-9716
lack	-9717
属肉食性	-9718
ев	-9719
万年	-9720
倡导	-9721
普顿	-9722
的例	-9723
行省	-9724
路轨	-9725
For	-9726
▁当时	-9727
伦特	-9728
胡同	-9729
ute	-9730
杭州市	-9731
解决方案	-9732
▁香港时间逢星期	-9733
利尔	-9734
和华	-9735
较早	-9736
餐饮	-9737
中学校	-9738
讲座	-9739
量产	-9740
创作了	-9741
的现象	-9742
操作系统	-9743
yp	-9744
不合	-9745
全日	-9746
首轮	-9747
mun	-9748
半决赛	-9749
希腊语	-9750
的报告	-9751
程度的	-9752
丞相	-9753
将来	-9754
敲出	-9755
站前	-9756
请愿	-9757
广西壮	-9758
中毒	-9759
努尔	-9760
接口	-9761
新教	-9762
谥号	-9763
车次	-9764
里尔	-9765
▁ex	-9766
但也有	-9767
哈萨克	-9768
居委会	-9769
被誉为	-9770
是奥地利	-9771
路易斯安	-9772
Robert	-9773
加的	-9774
千瓦	-9775
场馆	-9776
履行	-9777
拓展	-9778
不够	-9779
丽丝	-9780
困境	-9781
重叠	-9782
首长	-9783
终点站	-9784
罗尼亚	-9785
青海省	-9786
一段时间	-9787
▁开	-9788
书面	-9789
全力	-9790
北端	-9791
完毕	-9792
德堡	-9793
不存在	-9794
派出的	-9795
Xbox	-9796
▁尤	-9797
不大	-9798
嫁给	-9799
得多	-9800
日发布	-9801
研讨	-9802
▁轨道	-9803
▁建	-9804
叙事	-9805
祖国	-9806
为人知	-9807
识字率	-9808
中的一个	-9809
公使	-9810
将近	-9811
强行	-9812
男人	-9813
肖像	-9814
译名	-9815
诺尔	-9816
陪同	-9817
顿涅	-9818
了一座	-9819
摄影师	-9820
的演出	-9821
而受到	-9822
美国政府	-9823
David	-9824
一线	-9825
台铁	-9826
属名	-9827
录得	-9828
月到	-9829
概要	-9830
运转	-9831
中国人	-9832
原本的	-9833
位于该国中部	-9834
Ab	-9835
不当	-9836
塔斯	-9837
大堂	-9838
旺斯	-9839
英九	-9840
链接	-9841
东印度	-9842
PO	-9843
你的	-9844
尾巴	-9845
被俘	-9846
但他们	-9847
经济发展	-9848
人道	-9849
南站	-9850
口罩	-9851
赛后	-9852
数量的	-9853
哈佛大学	-9854
主要分布于	-9855
Twitter	-9856
下设	-9857
孔泰	-9858
拜访	-9859
敌对	-9860
用在	-9861
近期	-9862
音乐节	-9863
竞争对手	-9864
两地	-9865
划为	-9866
牡丹	-9867
蝴蝶	-9868
次全国	-9869
▁以下是	-9870
он	-9871
务局	-9872
四军	-9873
完颜	-9874
接着	-9875
ater	-9876
足球协会	-9877
塔克	-9878
学园	-9879
屏幕	-9880
缺少	-9881
聚居	-9882
▁人物	-9883
ny	-9884
希伯	-9885
亚马逊	-9886
曾多次	-9887
师范学校	-9888
位于该国东南部	-9889
之家	-9890
发文	-9891
工农	-9892
机构的	-9893
认为这	-9894
加勒比海	-9895
对战	-9896
扫描	-9897
杜鹃	-9898
枢机	-9899
的公司	-9900
Se	-9901
但该	-9902
南华	-9903
四种	-9904
拍卖	-9905
梅克	-9906
欧阳	-9907
转运	-9908
ife	-9909
的形象	-9910
SD	-9911
台语	-9912
在本	-9913
弗涅	-9914
民生	-9915
界面	-9916
键盘	-9917
弗朗什	-9918
ener	-9919
为辐鳍鱼纲鲈形目	-9920
▁穆	-9921
▁锡	-9922
奥托	-9923
所示	-9924
盖尔	-9925
镇守	-9926
oot	-9927
可以追溯到	-9928
▁–	-9929
▁桑	-9930
一层	-9931
迪克	-9932
道具	-9933
除外	-9934
检察院	-9935
俄罗斯的	-9936
友好城市	-9937
全身	-9938
塑料	-9939
时有	-9940
校方	-9941
段的	-9942
民俗	-9943
波利	-9944
演绎	-9945
衰退	-9946
因为在	-9947
铁道部	-9948
后来成为	-9949
不安	-9950
墨尔	-9951
海战	-9952
译作	-9953
▁Bl	-9954
▁Ed	-9955
生母	-9956
要在	-9957
达斯	-9958
过多	-9959
里尼	-9960
骑师	-9961
▁Wh	-9962
▁was	-9963
了在	-9964
四位	-9965
泉州	-9966
纯粹	-9967
和国家	-9968
桃园市	-9969
电影中	-9970
稳定性	-9971
精神病	-9972
野生动物	-9973
不动	-9974
专属	-9975
却在	-9976
幽默	-9977
著称	-9978
贯穿	-9979
还将	-9980
年日本	-9981
日期间	-9982
的记载	-9983
▁〈	-9984
攻读	-9985
顶级	-9986
治所在	-9987
由于其	-9988
的平均	-9989
目标是	-9990
却被	-9991
才是	-9992
理会	-9993
维新	-9994
行性	-9995
角的	-9996
首周	-9997
探险队	-9998
aster	-9999
▁田	-10000
分店	-10001
和三	-10002
时装	-10003
格的	-10004
汉朝	-10005
走了	-10006
选项	-10007
弗雷德	-10008
党校	-10009
到访	-10010
卒于	-10011
无力	-10012
有权	-10013
案的	-10014
莱恩	-10015
视野	-10016
省政府	-10017
▁Cor	-10018
▁One	-10019
广西壮族自治区	-10020
二号	-10021
党部	-10022
分队	-10023
宗旨	-10024
Sch	-10025
太阳能	-10026
放射性	-10027
本哈根	-10028
的车站	-10029
进入直路	-10030
基层	-10031
客场	-10032
攻下	-10033
果实	-10034
格纳	-10035
译本	-10036
▁编辑	-10037
年当选	-10038
▁爱	-10039
特在	-10040
直线	-10041
送给	-10042
郡王	-10043
▁经过	-10044
ym	-10045
也为	-10046
假期	-10047
分发	-10048
北与	-10049
南朝	-10050
在地	-10051
秀吉	-10052
长途	-10053
并通过	-10054
曾参与	-10055
卡斯蒂利亚	-10056
刚刚	-10057
哥特	-10058
存活	-10059
少卿	-10060
教科文	-10061
也与	-10062
入读	-10063
历时	-10064
文凭	-10065
牛顿	-10066
联队	-10067
袁世	-10068
在某些	-10069
将军澳	-10070
王朝的	-10071
周年纪念	-10072
乌兹	-10073
后备	-10074
总兵	-10075
打出	-10076
柴油机	-10077
翡翠台	-10078
生物学家	-10079
两艘	-10080
国营	-10081
康复	-10082
牧区	-10083
该处	-10084
和日本	-10085
在一些	-10086
圣地	-10087
外来	-10088
忠诚	-10089
提醒	-10090
百分	-10091
米哈	-10092
轻型	-10093
ray	-10094
最终幻想	-10095
▁青	-10096
坚决	-10097
白宫	-10098
组装	-10099
统帅	-10100
万英镑	-10101
俄比亚	-10102
学生的	-10103
光的	-10104
捕捉	-10105
据称	-10106
照明	-10107
盛行	-10108
背部	-10109
金星	-10110
▁不过	-10111
栖息于	-10112
上台	-10113
代言	-10114
师生	-10115
水果	-10116
镇的	-10117
由英国	-10118
的评价	-10119
人马	-10120
军阀	-10121
卓越	-10122
历程	-10123
河水	-10124
致敬	-10125
衰落	-10126
副市长	-10127
知名度	-10128
退役后	-10129
▁温	-10130
东莞	-10131
多条	-10132
容器	-10133
密的	-10134
开国	-10135
立为	-10136
谈话	-10137
ular	-10138
冠状病毒病疫情	-10139
在三	-10140
均在	-10141
应付	-10142
比斯	-10143
花岗	-10144
鸦片	-10145
改变了	-10146
卡车	-10147
翼龙	-10148
贫穷	-10149
越过	-10150
uch	-10151
大法官	-10152
上传	-10153
倒塌	-10154
厚度	-10155
大赏	-10156
家里	-10157
煽动	-10158
片尾	-10159
立面	-10160
索沃	-10161
萨瓦	-10162
象棋	-10163
和文化	-10164
年以后	-10165
被称作	-10166
与李	-10167
勒姆	-10168
毒性	-10169
看作	-10170
背叛	-10171
航运	-10172
铜锣	-10173
按察使	-10174
加州大学	-10175
商船	-10176
孤立	-10177
安市	-10178
科多	-10179
职权	-10180
西贡	-10181
迁居	-10182
因为他	-10183
正确的	-10184
比赛的	-10185
的节目	-10186
相应的	-10187
二十世纪	-10188
ze	-10189
分辨	-10190
录取	-10191
普雷	-10192
isc	-10193
先后在	-10194
部队的	-10195
汇报	-10196
的重	-10197
背后	-10198
总冠军	-10199
亚洲电视	-10200
哥本哈根	-10201
EF	-10202
亦称	-10203
奇迹	-10204
或许	-10205
招收	-10206
朝日	-10207
机身	-10208
等站	-10209
隆庆	-10210
驻华	-10211
向公众	-10212
是来自	-10213
奥斯曼帝国	-10214
▁Music	-10215
一面	-10216
从中	-10217
四强	-10218
干旱	-10219
年又	-10220
新星	-10221
水下	-10222
麦可	-10223
的列车	-10224
谢尔省	-10225
ations	-10226
巡视	-10227
怪物	-10228
标识	-10229
这份	-10230
军队的	-10231
民主进步	-10232
弗拉基米尔	-10233
喷射	-10234
园林	-10235
沿途	-10236
逃跑	-10237
驳回	-10238
ura	-10239
▁sh	-10240
仍然是	-10241
转向架	-10242
位于台湾	-10243
下行	-10244
不被	-10245
世的	-10246
储备	-10247
党魁	-10248
写为	-10249
层面	-10250
户籍	-10251
新任	-10252
林斯	-10253
气氛	-10254
状的	-10255
索瓦	-10256
马赛	-10257
发源于	-10258
第二名	-10259
袁世凯	-10260
克勒	-10261
安定	-10262
绰号	-10263
贵的	-10264
ien	-10265
一般的	-10266
小说家	-10267
就开始	-10268
由中国	-10269
青岛市	-10270
reet	-10271
东欧	-10272
元的	-10273
土著	-10274
广大	-10275
比特	-10276
美联	-10277
莱克	-10278
辽东	-10279
逃到	-10280
▁北京	-10281
基本法	-10282
布拉斯	-10283
布鲁克	-10284
彰化县	-10285
而来的	-10286
西北接	-10287
凯特	-10288
卡西	-10289
参战	-10290
现役	-10291
其中男	-10292
化学家	-10293
silver	-10294
鱼科的其中一种	-10295
奥布	-10296
操控	-10297
杀了	-10298
不清楚	-10299
东南接	-10300
影评人	-10301
转移至	-10302
cm	-10303
夫兰	-10304
学和	-10305
教友	-10306
旺角	-10307
亿港元	-10308
半长轴	-10309
的生产	-10310
继承了	-10311
是与	-10312
线索	-10313
是一项	-10314
讲述了	-10315
OK	-10316
之旅	-10317
和谐	-10318
流体	-10319
警卫	-10320
osa	-10321
主要有	-10322
及香港	-10323
研究室	-10324
阿卜杜	-10325
GM	-10326
预留	-10327
同时在	-10328
篇文章	-10329
亚利桑那州	-10330
▁小行星列表	-10331
一颗	-10332
接连	-10333
水手	-10334
相隔	-10335
量为	-10336
陈水	-10337
倾向于	-10338
建筑群	-10339
市镇范围内	-10340
▁Q	-10341
人选	-10342
半部	-10343
续约	-10344
维特	-10345
编为	-10346
胡安	-10347
路的	-10348
年之前	-10349
年之后	-10350
月正式	-10351
第二届	-10352
顿涅茨克	-10353
北欧	-10354
处在	-10355
异性	-10356
离职	-10357
让她	-10358
轻微	-10359
小行星带	-10360
▁Love	-10361
并列	-10362
港岛	-10363
成员的	-10364
日内瓦	-10365
综合性	-10366
▁con	-10367
包裹	-10368
契丹	-10369
就已	-10370
玉米	-10371
中表示	-10372
这张专辑	-10373
阿尔卑斯大区	-10374
伦理	-10375
依次	-10376
双人	-10377
司铎	-10378
和圣	-10379
育有	-10380
达的	-10381
门的	-10382
日启用	-10383
但于	-10384
修缮	-10385
后为	-10386
吸血	-10387
大名	-10388
戏曲	-10389
水晶	-10390
科特	-10391
主演的	-10392
在世界	-10393
电动机	-10394
道格拉斯	-10395
阿姆斯特	-10396
有机化合物	-10397
亚的	-10398
游玩	-10399
瓦兹	-10400
的音	-10401
腾讯	-10402
▁荣誉	-10403
签署了	-10404
初选	-10405
天内	-10406
它被	-10407
混血	-10408
国家和	-10409
孔泰大区	-10410
ар	-10411
专题	-10412
信长	-10413
取景	-10414
巴登	-10415
延至	-10416
派对	-10417
缺席	-10418
urn	-10419
淘汰赛	-10420
塑造	-10421
失误	-10422
电铁	-10423
神户	-10424
视角	-10425
阿勒	-10426
吸引了	-10427
年夏天	-10428
的人员	-10429
而成的	-10430
学者认为	-10431
加泰罗尼亚	-10432
日圆	-10433
的五	-10434
目击	-10435
科隆	-10436
童军	-10437
▁商业	-10438
外围赛	-10439
市议会	-10440
很容易	-10441
idae	-10442
William	-10443
中兴	-10444
参军	-10445
奥匈	-10446
球衣	-10447
站为	-10448
rol	-10449
同样的	-10450
户外	-10451
脉冲	-10452
ano	-10453
rac	-10454
劳伦斯	-10455
厄尔省	-10456
准则	-10457
分部	-10458
巴德	-10459
溶于	-10460
王府	-10461
年推出	-10462
许多人	-10463
▁Bar	-10464
农村居民点	-10465
▁Group	-10466
▁成	-10467
出家	-10468
处女	-10469
为三	-10470
八强	-10471
内尔	-10472
军校	-10473
女友	-10474
留守	-10475
的黑	-10476
等价	-10477
达赖	-10478
▁沈	-10479
事项	-10480
吞并	-10481
和他	-10482
困扰	-10483
带回	-10484
拿到	-10485
osp	-10486
创立了	-10487
德里希	-10488
架飞机	-10489
标志着	-10490
的居民	-10491
月加入中国共产党	-10492
PP	-10493
掌管	-10494
百合	-10495
神奈	-10496
罗那	-10497
Mon	-10498
TVB	-10499
▁卡尔	-10500
为首的	-10501
警察局	-10502
OH	-10503
传出	-10504
协同	-10505
归属	-10506
执照	-10507
抽签	-10508
时在	-10509
澄清	-10510
相遇	-10511
管弦	-10512
财团	-10513
▁他的	-10514
兰克林	-10515
多媒体	-10516
orge	-10517
GN	-10518
Me	-10519
动漫	-10520
寻常	-10521
木星	-10522
渗透	-10523
港府	-10524
火焰	-10525
电厂	-10526
事件中	-10527
决赛以	-10528
日上映	-10529
民主共和国	-10530
会对	-10531
修斯	-10532
文斯	-10533
滥用	-10534
列车的	-10535
展示了	-10536
最后在	-10537
的香港	-10538
管理委员会	-10539
兼容	-10540
年幼	-10541
捕获	-10542
森的	-10543
▁因此	-10544
乒乓球	-10545
大满贯	-10546
模块	-10547
而其	-10548
日早上	-10549
日出生于	-10550
有轨电车	-10551
▁个	-10552
东面	-10553
天水	-10554
必然	-10555
样式	-10556
设法	-10557
转让	-10558
ois	-10559
新增本土	-10560
不见	-10561
夫的	-10562
海滨	-10563
let	-10564
通常在	-10565
▁Res	-10566
EA	-10567
国歌	-10568
座椅	-10569
筹建	-10570
辅导	-10571
出色的	-10572
可以得到	-10573
▁x	-10574
剪辑	-10575
加油	-10576
插入	-10577
生下	-10578
表决	-10579
乌拉圭	-10580
无政府	-10581
三项	-10582
人间	-10583
住户	-10584
压迫	-10585
商会	-10586
收取	-10587
被毁	-10588
逆转	-10589
这就是	-10590
Microsoft	-10591
▁戈	-10592
▁方	-10593
伺服	-10594
充当	-10595
反攻	-10596
挑选	-10597
查询	-10598
七十	-10599
停泊	-10600
层次	-10601
意愿	-10602
抵御	-10603
林区	-10604
炮弹	-10605
ele	-10606
rich	-10607
普罗旺斯	-10608
社交媒体	-10609
▁九	-10610
后再	-10611
浦东	-10612
灯塔	-10613
物件	-10614
铺设	-10615
分类法	-10616
很可能	-10617
改建为	-10618
的弟弟	-10619
克里斯蒂安	-10620
边区	-10621
迪南	-10622
历史的	-10623
有超过	-10624
一代	-10625
克洛	-10626
养殖	-10627
前作	-10628
加冕	-10629
妈祖	-10630
猎人	-10631
飞往	-10632
amb	-10633
ico	-10634
在同一	-10635
的独立	-10636
缩写为	-10637
yd	-10638
▁两	-10639
中级	-10640
是于	-10641
枪击	-10642
的名	-10643
眼镜	-10644
站点	-10645
领主	-10646
单行本	-10647
后成为	-10648
类型为	-10649
足球锦标赛	-10650
下诏	-10651
仅存	-10652
意指	-10653
没能	-10654
卡洛斯	-10655
归类为	-10656
的自由	-10657
马英九	-10658
Bill	-10659
加快	-10660
千万	-10661
昔日	-10662
电报	-10663
副校长	-10664
奥委会	-10665
日开通	-10666
的开发	-10667
音乐录影带	-10668
业主	-10669
封建	-10670
海口	-10671
演技	-10672
被人	-10673
骚乱	-10674
别人	-10675
向上	-10676
开拓	-10677
支那	-10678
诉求	-10679
名人堂	-10680
很快就	-10681
财政部	-10682
脊椎动物	-10683
马里兰州	-10684
uz	-10685
不想	-10686
侧面	-10687
八十	-10688
几次	-10689
化妆	-10690
山峰	-10691
者是	-10692
诸葛	-10693
都统	-10694
的人类	-10695
MB	-10696
SC	-10697
三重	-10698
主线	-10699
反派	-10700
容许	-10701
泽尔	-10702
独家	-10703
这对	-10704
在一次	-10705
增加到	-10706
持续到	-10707
陈水扁	-10708
社会科学	-10709
SU	-10710
▁伯	-10711
▁兰	-10712
地主	-10713
短缺	-10714
决定在	-10715
合唱团	-10716
这是一个	-10717
▁begin	-10718
一块	-10719
亮的	-10720
号于	-10721
基部	-10722
所作	-10723
都以	-10724
代表性	-10725
政府军	-10726
的目的	-10727
相对论	-10728
atch	-10729
影响力的	-10730
日本政府	-10731
是世界上	-10732
AF	-10733
之人	-10734
但它	-10735
到场	-10736
刻有	-10737
变迁	-10738
大概	-10739
宦官	-10740
对付	-10741
楼宇	-10742
车厂	-10743
Per	-10744
个人的	-10745
墨尔本	-10746
得票率	-10747
是根据	-10748
正式的	-10749
类案件	-10750
中文大学	-10751
iy	-10752
东岸	-10753
初次	-10754
摩斯	-10755
村的	-10756
远程	-10757
遇上	-10758
共青团	-10759
史以来	-10760
在印度	-10761
▁太	-10762
丰田	-10763
庞大	-10764
太阳系	-10765
核武器	-10766
的情形	-10767
的特性	-10768
bert	-10769
▁from	-10770
信义	-10771
字样	-10772
旅程	-10773
雅克	-10774
二十厅	-10775
的一份	-10776
有所不同	-10777
萨诸塞州	-10778
的一座城市	-10779
伊夫	-10780
尼的	-10781
高温	-10782
魔术	-10783
wan	-10784
获得男	-10785
万余	-10786
南开	-10787
南韩	-10788
安葬	-10789
服从	-10790
这款	-10791
▁内容	-10792
二十四年	-10793
东正	-10794
之声	-10795
会堂	-10796
健身	-10797
她于	-10798
富裕	-10799
渤海	-10800
续作	-10801
主义和	-10802
哺乳动物	-10803
进入直路后	-10804
位于该国南部	-10805
县的一个城镇	-10806
扰动	-10807
病的	-10808
莉丝	-10809
开始于	-10810
旅游业	-10811
结构的	-10812
苏联的	-10813
有期徒刑	-10814
注意的是	-10815
▁蒂	-10816
上尉	-10817
上行	-10818
便会	-10819
俄州	-10820
填词	-10821
始发	-10822
日中	-10823
日前	-10824
的王	-10825
顺位	-10826
ita	-10827
因此被	-10828
能够在	-10829
规定的	-10830
年代后期	-10831
石器时代	-10832
这是因为	-10833
社会主义共和国	-10834
人造	-10835
到底	-10836
卡洛	-10837
太多	-10838
晚会	-10839
破裂	-10840
科普	-10841
价值观	-10842
布拉格	-10843
年去世	-10844
达成协议	-10845
市人民政府	-10846
举重	-10847
守军	-10848
睡眠	-10849
马林	-10850
可作为	-10851
文化和	-10852
等问题	-10853
艺术品	-10854
▁非	-10855
传闻	-10856
和歌	-10857
小巴	-10858
拆卸	-10859
搜集	-10860
ior	-10861
rim	-10862
▁第四	-10863
对中国	-10864
小组赛	-10865
满洲国	-10866
的想法	-10867
为例	-10868
亦曾	-10869
凶手	-10870
分行	-10871
分隔	-10872
干道	-10873
看来	-10874
考证	-10875
转到	-10876
▁威廉	-10877
做出了	-10878
全新的	-10879
安大略	-10880
成功地	-10881
极大的	-10882
的战斗	-10883
James	-10884
年夏季残疾人奥林匹克运动会	-10885
与同	-10886
中南	-10887
休养	-10888
写信	-10889
动脉	-10890
南越	-10891
楚国	-10892
献给	-10893
突变	-10894
视察	-10895
学研究	-10896
完成的	-10897
椭圆形	-10898
埃塞俄比亚	-10899
ua	-10900
业界	-10901
只得	-10902
河川	-10903
注重	-10904
痕迹	-10905
的风	-10906
Bar	-10907
有不少	-10908
科大学	-10909
第二百	-10910
西西里	-10911
以至	-10912
加特	-10913
电源	-10914
遇见	-10915
高清	-10916
商学院	-10917
安装在	-10918
浏览器	-10919
西部的	-10920
的一部份	-10921
的重要性	-10922
归入	-10923
沿着	-10924
编纂	-10925
金华	-10926
震惊	-10927
可以从	-10928
司司长	-10929
率领的	-10930
让他们	-10931
▁Ass	-10932
但她	-10933
弹性	-10934
明清	-10935
格达	-10936
烟草	-10937
米拉	-10938
斯克州	-10939
红十字	-10940
他们认为	-10941
地方法院	-10942
俄罗斯联邦	-10943
华沙	-10944
吉士	-10945
急行	-10946
欧美	-10947
以纪念	-10948
▁萧	-10949
曲棍	-10950
月号	-10951
雇员	-10952
▁Go	-10953
总教练	-10954
▁Fran	-10955
囚禁	-10956
已故	-10957
并用	-10958
推举	-10959
新鲜	-10960
松山	-10961
迪尔	-10962
是秘鲁	-10963
乡试举人	-10964
足球超级联赛	-10965
RE	-10966
▁魏	-10967
人心	-10968
哥斯	-10969
宠物	-10970
真空	-10971
萤幕	-10972
行列	-10973
与英国	-10974
并认为	-10975
有时会	-10976
的创作	-10977
副秘书长	-10978
建立一个	-10979
立法会议员	-10980
LA	-10981
NT	-10982
之星	-10983
假说	-10984
均由	-10985
央视	-10986
每秒	-10987
氧气	-10988
致仕	-10989
被用于	-10990
echn	-10991
inal	-10992
івка	-10993
安东尼奥	-10994
一首	-10995
导航	-10996
弹道	-10997
期限	-10998
汽油	-10999
解雇	-11000
里夫	-11001
▁Sc	-11002
三部曲	-11003
取消了	-11004
议会议员	-11005
合计	-11006
和在	-11007
基亚	-11008
天花	-11009
宫崎	-11010
水源	-11011
法属	-11012
▁di	-11013
于美国	-11014
副教授	-11015
的调查	-11016
首次在	-11017
地面车站	-11018
ution	-11019
▁将	-11020
也对	-11021
光年	-11022
塞特	-11023
威特	-11024
是中	-11025
机型	-11026
枪械	-11027
货车	-11028
过滤	-11029
乌兹别	-11030
总编辑	-11031
杯冠军	-11032
的冠军	-11033
同进士出身	-11034
而人口密度为每平方千米人	-11035
▁七	-11036
住院	-11037
唐纳	-11038
拜仁	-11039
的白	-11040
詹姆	-11041
的球队	-11042
阿波罗	-11043
pt	-11044
已婚	-11045
此剧	-11046
舞曲	-11047
了一次	-11048
公安局	-11049
公布了	-11050
同位素	-11051
最终被	-11052
reen	-11053
ring	-11054
区的一个	-11055
并于同年	-11056
生产总值	-11057
委员会副主任	-11058
一道	-11059
各式	-11060
大兴	-11061
大洋	-11062
大脑	-11063
抢劫	-11064
科斯	-11065
人民党	-11066
大地震	-11067
延长至	-11068
是基于	-11069
有机会	-11070
型电力机车	-11071
不了	-11072
亲属	-11073
处以	-11074
奠基	-11075
很好	-11076
提取	-11077
散布	-11078
汝拉	-11079
结业	-11080
参谋部	-11081
年赛季	-11082
有线电视	-11083
不错	-11084
又以	-11085
否定	-11086
在那	-11087
板桥	-11088
包括在	-11089
海岸线	-11090
这个词	-11091
位于法国大东部大区	-11092
也以	-11093
千户	-11094
尔巴	-11095
潮湿	-11096
猎物	-11097
雅图	-11098
ION	-11099
ull	-11100
的村落	-11101
也就是说	-11102
人口数量为	-11103
▁贾	-11104
上与	-11105
土司	-11106
尽快	-11107
德和	-11108
是新	-11109
有趣	-11110
rem	-11111
名学生	-11112
被授予	-11113
转变为	-11114
个出入口	-11115
最高点为	-11116
车站大楼	-11117
be	-11118
▁潘	-11119
刑法	-11120
登基	-11121
铸币	-11122
iew	-11123
▁例如	-11124
阿拉伯语	-11125
仅为	-11126
伴随	-11127
庄村	-11128
摔跤	-11129
楼的	-11130
用法	-11131
跟踪	-11132
逃走	-11133
会产生	-11134
期间的	-11135
科多尔省	-11136
领衔主演	-11137
却是	-11138
告别	-11139
多部	-11140
捍卫	-11141
泰山	-11142
潮州	-11143
鱼亚目	-11144
大规模的	-11145
最古老的	-11146
平均降雨量	-11147
津贴	-11148
现名	-11149
电荷	-11150
▁后续	-11151
有一座	-11152
石家庄	-11153
绕太阳	-11154
位于日本	-11155
飓风中心	-11156
其中男性为	-11157
县名	-11158
头角	-11159
字形	-11160
富豪	-11161
的花	-11162
罗尔	-11163
▁Qu	-11164
庞大的	-11165
现有的	-11166
第三个	-11167
ever	-11168
获得一枚金牌	-11169
作客	-11170
冷战	-11171
对自	-11172
把他	-11173
母语	-11174
界线	-11175
的爱	-11176
长城	-11177
阴性	-11178
uck	-11179
yth	-11180
与台湾	-11181
希伯来	-11182
法尔茨	-11183
布列塔尼	-11184
艺术学院	-11185
世袭	-11186
交互	-11187
单词	-11188
确切	-11189
私有	-11190
卡斯特	-11191
短篇小说	-11192
▁Park	-11193
光复	-11194
星座	-11195
罗伊	-11196
船上	-11197
锦赛	-11198
▁同时	-11199
奥尔良	-11200
平台上	-11201
日发现	-11202
的湖泊	-11203
相似的	-11204
esis	-11205
不同的是	-11206
动画电影	-11207
傍晚	-11208
写真	-11209
右岸	-11210
器和	-11211
年均	-11212
当场	-11213
拜登	-11214
营销	-11215
Red	-11216
中担任	-11217
蔡英文	-11218
▁Live	-11219
ca	-11220
国联	-11221
土库	-11222
张学	-11223
无意	-11224
柔道	-11225
马特	-11226
已经在	-11227
年大选	-11228
新泽西州	-11229
日常生活	-11230
UC	-11231
分手	-11232
后由	-11233
约在	-11234
约定	-11235
和国际	-11236
党组书记	-11237
师范学院	-11238
总领事馆	-11239
Phone	-11240
ology	-11241
阿拉巴马州	-11242
▁Enter	-11243
联合国教科文	-11244
在被	-11245
复数	-11246
▁生态	-11247
今天的	-11248
借用	-11249
几位	-11250
唱歌	-11251
宪章	-11252
愿望	-11253
支持的	-11254
几乎没有	-11255
年出生于	-11256
下面	-11257
五名	-11258
告终	-11259
和对	-11260
奈良	-11261
李氏	-11262
炮台	-11263
男爵	-11264
至元	-11265
陶瓷	-11266
价值的	-11267
副会长	-11268
是由于	-11269
线车站	-11270
人之	-11271
后任	-11272
填海	-11273
多米	-11274
有过	-11275
楼高	-11276
珠江	-11277
石灰	-11278
陈述	-11279
▁韩国	-11280
简称为	-11281
西太平洋	-11282
▁各	-11283
也因	-11284
兼职	-11285
双层	-11286
四处	-11287
猛烈	-11288
规律	-11289
希望能	-11290
必要的	-11291
总领事	-11292
集团的	-11293
国防部长	-11294
Super	-11295
东德	-11296
向他	-11297
蒂亚	-11298
诊所	-11299
进了	-11300
发出的	-11301
放弃了	-11302
第三名	-11303
许可证	-11304
侧式月台	-11305
伪造	-11306
分的	-11307
李克	-11308
知州	-11309
禁令	-11310
主要在	-11311
第二位	-11312
战争爆发	-11313
改革开放	-11314
科的一属	-11315
圆柱	-11316
断裂	-11317
服用	-11318
欢乐	-11319
该镇	-11320
韦伯	-11321
个月的	-11322
大学和	-11323
合并而成	-11324
▁Part	-11325
使命	-11326
录像	-11327
正值	-11328
率兵	-11329
降至	-11330
预赛	-11331
三角洲	-11332
知识分	-11333
ен	-11334
▁范	-11335
庆典	-11336
▁On	-11337
一至五	-11338
控制了	-11339
假名	-11340
南宁	-11341
叛军	-11342
托斯	-11343
摄氏	-11344
礼堂	-11345
供应商	-11346
在这种	-11347
方面军	-11348
的意见	-11349
群岛的	-11350
大部分的	-11351
该小行星	-11352
运载火箭	-11353
▁轨道参数	-11354
两栖	-11355
夫特	-11356
她还	-11357
布达	-11358
招待	-11359
掌控	-11360
他开始	-11361
则表示	-11362
大会上	-11363
新成立的	-11364
东晋	-11365
会战	-11366
册封	-11367
化和	-11368
孚日	-11369
岛和	-11370
比克	-11371
绘入	-11372
投资者	-11373
有一定	-11374
Inst	-11375
▁Ste	-11376
兴奋	-11377
在不	-11378
日到	-11379
贝斯	-11380
贯通	-11381
降水	-11382
以前的	-11383
十二厅	-11384
售票机	-11385
经济学家	-11386
Charl	-11387
声援	-11388
无缘	-11389
无罪	-11390
日元	-11391
的旧	-11392
els	-11393
的距离	-11394
而成为	-11395
东与	-11396
伟大	-11397
收缩	-11398
记述	-11399
赶到	-11400
遍布	-11401
首脑	-11402
▁埃尔	-11403
▁这种	-11404
岛上的	-11405
系主任	-11406
比利牛斯省	-11407
PG	-11408
为界	-11409
侦测	-11410
北大	-11411
它与	-11412
开往	-11413
正好	-11414
统领	-11415
罗姆	-11416
老年	-11417
营利	-11418
的效果	-11419
SH	-11420
亚瑟	-11421
化物	-11422
对决	-11423
左岸	-11424
沙尔	-11425
违背	-11426
风波	-11427
为纪念	-11428
动力学	-11429
所罗门	-11430
斯蒂芬	-11431
的唯一	-11432
关西	-11433
埃斯	-11434
lus	-11435
▁ال	-11436
等方面	-11437
outh	-11438
over	-11439
port	-11440
中路	-11441
路面	-11442
镶嵌	-11443
▁Gu	-11444
塞克斯	-11445
活动中	-11446
的战争	-11447
▁单	-11448
多涅	-11449
山城	-11450
带动	-11451
溶剂	-11452
霹雳	-11453
年在位	-11454
本届赛事	-11455
卫斯	-11456
卷入	-11457
原属	-11458
打点	-11459
福斯	-11460
▁他在	-11461
▁结构	-11462
歌曲的	-11463
节目的	-11464
帝国海军	-11465
乐曲	-11466
永安	-11467
清洗	-11468
濒危	-11469
船长	-11470
载客	-11471
▁但是	-11472
新干线	-11473
日推出	-11474
高加索	-11475
这个名字	-11476
▁邓	-11477
德曼	-11478
歼灭	-11479
率部	-11480
邮报	-11481
▁彭	-11482
之孙	-11483
抨击	-11484
比起	-11485
炮塔	-11486
阳郡	-11487
饥荒	-11488
▁地名	-11489
明星赛	-11490
曾经在	-11491
omas	-11492
中层水域	-11493
mo	-11494
均匀	-11495
成像	-11496
海伦	-11497
统筹	-11498
重创	-11499
闯入	-11500
伦西亚	-11501
随后的	-11502
对外开放	-11503
批全国重点文物保护单位	-11504
凯撒	-11505
加装	-11506
回族	-11507
欧亚	-11508
童年	-11509
美奖	-11510
腓力	-11511
ope	-11512
三个月	-11513
两人的	-11514
基因组	-11515
预告片	-11516
rand	-11517
年奥运会	-11518
td	-11519
一中	-11520
也许	-11521
同情	-11522
听说	-11523
回响	-11524
指引	-11525
随时	-11526
可以将	-11527
在没有	-11528
小提琴	-11529
离心率为	-11530
yr	-11531
三菱	-11532
五千	-11533
全能	-11534
慢性	-11535
艺员	-11536
他也是	-11537
外国人	-11538
的信息	-11539
铁路线	-11540
与阿	-11541
也很	-11542
像素	-11543
变异	-11544
吐蕃	-11545
整修	-11546
沙滩	-11547
由该	-11548
诺克	-11549
日进行	-11550
玻利维亚	-11551
政协副主席	-11552
▁分	-11553
从来	-11554
取胜	-11555
官僚	-11556
年所	-11557
湖区	-11558
白云	-11559
剧场版	-11560
able	-11561
二十六年	-11562
卡尔瓦多	-11563
▁女	-11564
外侧	-11565
抛弃	-11566
救护	-11567
本季	-11568
激发	-11569
在过去	-11570
市政厅	-11571
但实际上	-11572
常务委员会	-11573
上书	-11574
与上	-11575
几天	-11576
场面	-11577
婆罗	-11578
安省	-11579
射程	-11580
屋邨	-11581
师的	-11582
快车	-11583
悲剧	-11584
消化	-11585
车票	-11586
小时后	-11587
▁秦	-11588
一万	-11589
两部	-11590
刻意	-11591
指向	-11592
毛利	-11593
连胜	-11594
▁Se	-11595
内部的	-11596
威斯特	-11597
▁中国大	-11598
玛格丽特	-11599
两场	-11600
供给	-11601
北岸	-11602
对流	-11603
急性	-11604
缘故	-11605
阮福	-11606
的一段	-11607
的证据	-11608
二十九年	-11609
北达科他州	-11610
IX	-11611
和黑	-11612
域名	-11613
大胜	-11614
年夏	-11615
灵活	-11616
中文版	-11617
名士兵	-11618
幼儿园	-11619
机场的	-11620
选择了	-11621
邻近的	-11622
半长轴为	-11623
领导小组	-11624
ichard	-11625
OL	-11626
元老	-11627
宋代	-11628
无穷	-11629
日向	-11630
条文	-11631
汇入	-11632
浦路	-11633
落在	-11634
雷克	-11635
▁本科	-11636
了大量	-11637
分公司	-11638
年以前	-11639
摩托车	-11640
月参加	-11641
世界纪录	-11642
神圣罗马帝国	-11643
ал	-11644
充电	-11645
太保	-11646
学部	-11647
家康	-11648
山乡	-11649
山村	-11650
提督	-11651
看守	-11652
罪犯	-11653
龙属	-11654
必须在	-11655
日在美国	-11656
亮度	-11657
工事	-11658
方济	-11659
本鱼	-11660
ger	-11661
例如在	-11662
女性的	-11663
有一名	-11664
称其为	-11665
Java	-11666
是位于美国密苏里州	-11667
三号	-11668
三座	-11669
只需	-11670
外星	-11671
拉格	-11672
美拉	-11673
转化	-11674
驻军	-11675
反映了	-11676
布里斯	-11677
Mark	-11678
巴塞罗那	-11679
总面积为	-11680
DF	-11681
▁戴	-11682
全家	-11683
地层	-11684
沙咀	-11685
活佛	-11686
耗资	-11687
在同年	-11688
电视网	-11689
的精神	-11690
诺维奇	-11691
Open	-11692
▁Award	-11693
为辐鳍鱼纲鲤	-11694
仍为	-11695
但有	-11696
入场	-11697
力和	-11698
华中	-11699
松江	-11700
牌照	-11701
那不	-11702
All	-11703
中西部	-11704
所组成	-11705
有一种	-11706
的攻击	-11707
至少有	-11708
曼彻斯特	-11709
绘入地图	-11710
该小行星于	-11711
▁近	-11712
天鹅	-11713
抓住	-11714
推移	-11715
此种	-11716
海尔	-11717
瓦斯	-11718
章节	-11719
联手	-11720
在这一	-11721
德国人	-11722
的人们	-11723
认定为	-11724
普法尔茨	-11725
绕太阳运	-11726
年区议会选举	-11727
位于该国西北部	-11728
举动	-11729
受访	-11730
州区	-11731
帮忙	-11732
平壤	-11733
报刊	-11734
科目	-11735
闪电	-11736
大约有	-11737
安德森	-11738
密尔顿	-11739
年统计	-11740
型柴油机车	-11741
▁旧	-11742
他所	-11743
制药	-11744
掉了	-11745
改以	-11746
紫色	-11747
线与	-11748
输送	-11749
Har	-11750
▁UA	-11751
▁he	-11752
其主要	-11753
国家杯	-11754
布尔什	-11755
年之间	-11756
规模最大的	-11757
是一颗绕太阳运	-11758
养老	-11759
写下	-11760
出动	-11761
引述	-11762
棉花	-11763
特务	-11764
约占	-11765
▁澳门	-11766
二十四	-11767
打击率	-11768
是一颗绕太阳运转的小行星	-11769
买下	-11770
坐在	-11771
奥兰	-11772
尺度	-11773
带走	-11774
忍者	-11775
招标	-11776
普斯	-11777
晶片	-11778
要么	-11779
▁现时	-11780
年停运	-11781
挑战赛	-11782
次会议	-11783
▁San	-11784
角色扮演	-11785
Gu	-11786
▁城	-11787
也就	-11788
削减	-11789
即便	-11790
寒冷	-11791
救济	-11792
物流	-11793
不稳定	-11794
他的儿	-11795
位于南	-11796
回到了	-11797
实现了	-11798
的台湾	-11799
蝙蝠侠	-11800
评论员	-11801
野战军	-11802
铜锣湾	-11803
降格为	-11804
多尔多涅	-11805
买卖	-11806
声调	-11807
心灵	-11808
振兴	-11809
现行	-11810
荣耀	-11811
邯郸	-11812
导致的	-11813
市场的	-11814
二十八年	-11815
ritic	-11816
该物种的模式产地在	-11817
lt	-11818
凡尔	-11819
漏洞	-11820
田中	-11821
维夫	-11822
藏书	-11823
逼近	-11824
古罗马	-11825
可通过	-11826
宇航员	-11827
模式种	-11828
PM	-11829
哥拉	-11830
客观	-11831
弯道	-11832
月时	-11833
莫斯	-11834
代之	-11835
回报	-11836
属下	-11837
的乡	-11838
进度	-11839
Don	-11840
公斤级	-11841
名平民	-11842
在其他	-11843
显示出	-11844
的风格	-11845
句丽	-11846
所述	-11847
搜查	-11848
曾孙	-11849
有功	-11850
电讯	-11851
的门	-11852
▁赛事	-11853
星期六	-11854
的特点	-11855
▁洪	-11856
也于	-11857
修读	-11858
守卫	-11859
忽视	-11860
推断	-11861
教士	-11862
暂无	-11863
溶解	-11864
相接	-11865
纪委	-11866
长为	-11867
▁本作	-11868
保守派	-11869
嘉义县	-11870
塔尼亚	-11871
学生会	-11872
主要用于	-11873
普查规定	-11874
特区政府	-11875
一郎	-11876
凯尔	-11877
击出	-11878
和约	-11879
投身	-11880
瓦解	-11881
而这	-11882
mol	-11883
▁研究	-11884
古建筑	-11885
可能有	-11886
维基百科	-11887
小行星带小行星	-11888
一班	-11889
东至	-11890
史诗	-11891
大马	-11892
将由	-11893
当事	-11894
涂装	-11895
激光	-11896
激活	-11897
莎拉	-11898
ani	-11899
得到的	-11900
的一切	-11901
地区代表	-11902
▁冯	-11903
京剧	-11904
时所	-11905
杆菌	-11906
武警	-11907
海报	-11908
缺点	-11909
在伦敦	-11910
▁are	-11911
普查规定居民点	-11912
为主小行星带小行星	-11913
▁校	-11914
便宜	-11915
同行	-11916
在她	-11917
牙买	-11918
空难	-11919
都尉	-11920
以至于	-11921
尽可能	-11922
玛利亚	-11923
跨性别	-11924
ford	-11925
▁Rec	-11926
行政中心为	-11927
喀什	-11928
思维	-11929
民营	-11930
湾区	-11931
中北部	-11932
年发行	-11933
的最后	-11934
科索沃	-11935
匹配	-11936
情人	-11937
星光	-11938
穿着	-11939
视作	-11940
迹象	-11941
ett	-11942
副作用	-11943
发展成	-11944
留下的	-11945
的地点	-11946
遭到了	-11947
ello	-11948
irst	-11949
宾夕法尼亚州	-11950
▁热	-11951
中亚	-11952
促成	-11953
充足	-11954
史记	-11955
嘉兴	-11956
实在	-11957
成名	-11958
标注	-11959
订单	-11960
较短	-11961
霸王	-11962
该计划	-11963
世界排名	-11964
二十五年	-11965
加拿大的	-11966
合作伙伴	-11967
孟加拉国	-11968
COVID	-11969
的轨道半长轴为	-11970
会与	-11971
动荡	-11972
塞拉	-11973
季风	-11974
安息	-11975
幼稚	-11976
正如	-11977
缩减	-11978
西临	-11979
革命党	-11980
ei	-11981
以免	-11982
伏尔	-11983
厨房	-11984
嘉定	-11985
枢密	-11986
武田	-11987
纸币	-11988
荷马	-11989
补选	-11990
西欧	-11991
配有	-11992
www	-11993
▁ne	-11994
和经济	-11995
顺天府	-11996
双打冠军	-11997
七世	-11998
噪音	-11999
平息	-12000
库斯	-12001
手册	-12002
流派	-12003
误差	-12004
金正	-12005
全国人大代表	-12006
侦查	-12007
勇敢	-12008
双边	-12009
声母	-12010
民居	-12011
瞬间	-12012
硝酸	-12013
钟楼	-12014
东部的	-12015
的特色	-12016
表示自	-12017
费尔德	-12018
世界大赛	-12019
位于法国新阿基坦大区	-12020
▁孔	-12021
两端	-12022
克和	-12023
全港	-12024
向外	-12025
喷发	-12026
多于	-12027
当今	-12028
德县	-12029
某一	-12030
水县	-12031
皇宫	-12032
编修	-12033
万欧元	-12034
住宅区	-12035
候车室	-12036
卫斯理	-12037
委员长	-12038
的服务	-12039
ates	-12040
圣彼得堡	-12041
族自治县	-12042
空军基地	-12043
而该地最高点为	-12044
而该地最高点为海拔高度	-12045
作画	-12046
克服	-12047
大王	-12048
奏曲	-12049
察院	-12050
山路	-12051
暴风	-12052
殴打	-12053
沃特	-12054
阐述	-12055
阿萨	-12056
马可	-12057
升降机	-12058
巴布亚	-12059
托勒密	-12060
直辖市	-12061
▁All	-12062
保密	-12063
参照	-12064
后人	-12065
噶尔	-12066
茅斯	-12067
菲亚	-12068
Mus	-12069
氧化物	-12070
该系统	-12071
OC	-12072
事先	-12073
德在	-12074
徽章	-12075
屏东县	-12076
庶吉士	-12077
当地人	-12078
的做法	-12079
骑士团	-12080
ublic	-12081
沙特阿拉伯	-12082
为热带淡水鱼	-12083
▁同	-12084
▁崔	-12085
两周	-12086
做好	-12087
光线	-12088
北非	-12089
变速	-12090
奇异	-12091
德萨	-12092
想像	-12093
曼恩	-12094
颅骨	-12095
ump	-12096
反对党	-12097
建造了	-12098
更容易	-12099
游泳池	-12100
瓦尔德	-12101
邮局于	-12102
台湾总督府	-12103
地标	-12104
政法	-12105
海的	-12106
边防	-12107
犹太教	-12108
内布拉斯	-12109
香港大学	-12110
ricon	-12111
巴巴	-12112
用水	-12113
都城	-12114
切尔尼	-12115
十字军	-12116
的保护	-12117
的运动	-12118
这两种	-12119
怪兽	-12120
悠久	-12121
海因	-12122
获选	-12123
是唯一	-12124
的一处	-12125
第一座	-12126
在此之前	-12127
夏朗德省	-12128
偏西	-12129
克力	-12130
声誉	-12131
安提	-12132
年纪	-12133
敌方	-12134
木儿	-12135
如下表	-12136
微生物	-12137
的管理	-12138
莱茵省	-12139
马达加斯	-12140
上以	-12141
伊勒	-12142
单人	-12143
后便	-12144
始祖	-12145
金的	-12146
rav	-12147
代表的	-12148
位置是	-12149
在许多	-12150
造船厂	-12151
民主主义人民共和国	-12152
一小	-12153
南洋	-12154
发性	-12155
埼玉	-12156
法轮	-12157
解剖	-12158
教育家	-12159
ense	-12160
路易斯安那州	-12161
下台	-12162
冬天	-12163
手指	-12164
摩天	-12165
政事	-12166
王氏	-12167
石勒	-12168
立宪	-12169
策骑	-12170
遗憾	-12171
都很	-12172
las	-12173
金像奖	-12174
line	-12175
▁And	-12176
富兰克林	-12177
栖息在底层水域	-12178
▁每	-12179
使馆	-12180
公报	-12181
合伙	-12182
大为	-12183
太常	-12184
志明	-12185
斯堡	-12186
瓦夫	-12187
来进行	-12188
演出的	-12189
福克斯	-12190
erson	-12191
▁Colle	-12192
年亚洲运动会	-12193
Is	-12194
党团	-12195
分化	-12196
大中	-12197
尾鳍	-12198
感应	-12199
我是	-12200
源头	-12201
的孙	-12202
耕地	-12203
页面	-12204
▁开发	-12205
的出现	-12206
被广泛	-12207
世纪中叶	-12208
牛津大学	-12209
BE	-12210
北条	-12211
售出	-12212
多斯	-12213
将之	-12214
窗户	-12215
东西向	-12216
两部分	-12217
以下的	-12218
而无法	-12219
附加赛	-12220
anth	-12221
购物中心	-12222
位于该国东北部	-12223
朝鲜民主主义人民共和国	-12224
停战	-12225
节省	-12226
酿酒	-12227
年创立	-12228
曾一度	-12229
有一条	-12230
DE	-12231
▁曹	-12232
不设	-12233
去除	-12234
墙壁	-12235
审计	-12236
弱的	-12237
捕食	-12238
ilm	-12239
环境中	-12240
的宗教	-12241
设计了	-12242
是一位美国	-12243
中华人民共和国驻	-12244
他亦	-12245
妥协	-12246
岁及	-12247
斯威	-12248
瑟琳	-12249
的书	-12250
组别	-12251
于是在	-12252
制作了	-12253
莫里斯	-12254
长度为	-12255
新几内亚	-12256
底中层水域	-12257
联合国教科文组织	-12258
▁蓝	-12259
优胜	-12260
柔佛	-12261
满分	-12262
的拉	-12263
羽球	-12264
语文	-12265
造船	-12266
在接受	-12267
打破了	-12268
Paul	-12269
ский	-12270
科罗拉多州	-12271
位于该国西南部	-12272
信心	-12273
橙色	-12274
私营	-12275
西边	-12276
GDP	-12277
事件后	-12278
于日本	-12279
回忆录	-12280
并设有	-12281
Michael	-12282
争执	-12283
厄瓜	-12284
弗洛	-12285
碳酸	-12286
虚假	-12287
首场	-12288
DJ	-12289
ón	-12290
▁人	-12291
其所	-12292
加来	-12293
合一	-12294
混音	-12295
渴望	-12296
跳舞	-12297
进制	-12298
马赫	-12299
发源自	-12300
弗兰克	-12301
改编成	-12302
杀死了	-12303
系统和	-12304
▁del	-12305
田径运动员	-12306
之久	-12307
各州	-12308
售卖	-12309
揭幕	-12310
时至	-12311
特律	-12312
直达	-12313
结晶	-12314
败给	-12315
圣公会	-12316
目前的	-12317
ista	-12318
万立方米	-12319
是匈牙利	-12320
埋葬	-12321
抑郁	-12322
抚养	-12323
行销	-12324
阿曼	-12325
麦隆	-12326
off	-12327
性鱼类	-12328
拥有的	-12329
是属于	-12330
清政府	-12331
岛式站台	-12332
▁英	-12333
协约	-12334
巴林	-12335
月和	-12336
氛围	-12337
组成了	-12338
滨海塞纳	-12339
受益	-12340
巴利	-12341
沙皇	-12342
海地	-12343
趁机	-12344
高出	-12345
erc	-12346
oid	-12347
文学奖	-12348
的地面	-12349
类动物	-12350
ific	-12351
国家统计	-12352
有史以来	-12353
▁下辖以下地区	-12354
亚尔	-12355
分治	-12356
加达	-12357
听众	-12358
官话	-12359
库克	-12360
揭发	-12361
新罗	-12362
邦联	-12363
阻挡	-12364
在韩国	-12365
工学院	-12366
这本书	-12367
oint	-12368
交响乐团	-12369
族自治州	-12370
▁System	-12371
▁名	-12372
三天	-12373
上学	-12374
不易	-12375
华为	-12376
南边	-12377
售价	-12378
塑胶	-12379
底层	-12380
建交	-12381
斐济	-12382
聚合	-12383
追赠	-12384
ruc	-12385
博士生	-12386
大学士	-12387
植物种	-12388
低温	-12389
勒冈	-12390
团员	-12391
感知	-12392
新宿	-12393
渔民	-12394
白天	-12395
租赁	-12396
鞑靼	-12397
局集团	-12398
的空间	-12399
SL	-12400
XX	-12401
两台	-12402
书的	-12403
亚视	-12404
兵器	-12405
冠名	-12406
极度	-12407
格斗	-12408
珠宝	-12409
罹患	-12410
▁中央	-12411
向西北	-12412
幸存者	-12413
斯塔夫	-12414
耶维奇	-12415
西南接	-12416
年代开始	-12417
羽毛球锦标赛	-12418
该省份为法国西北部	-12419
PA	-12420
伯尔	-12421
善于	-12422
国泰	-12423
大英	-12424
抗争	-12425
的孩	-12426
落入	-12427
起的	-12428
连通	-12429
执行官	-12430
母亲是	-12431
流行的	-12432
的一支	-12433
马克斯	-12434
停播	-12435
偶然	-12436
具庆	-12437
刘备	-12438
炮击	-12439
的次	-12440
目睹	-12441
访谈	-12442
近卫	-12443
sur	-12444
教育局	-12445
的一半	-12446
都察院	-12447
▁Par	-12448
位于香港	-12449
尤其是在	-12450
不便	-12451
与小	-12452
京城	-12453
效益	-12454
教材	-12455
暹罗	-12456
潜力	-12457
雷尔	-12458
具庆下	-12459
在整个	-12460
所取代	-12461
无论是	-12462
等职务	-12463
▁国家队	-12464
三分之一	-12465
之役	-12466
公职	-12467
制得	-12468
千里	-12469
折叠	-12470
护送	-12471
终极	-12472
羽联	-12473
邮票	-12474
队史	-12475
阿瑟	-12476
oly	-12477
▁ac	-12478
年平均	-12479
得名于	-12480
的象征	-12481
弗雷德里克	-12482
WE	-12483
军营	-12484
击剑	-12485
四方	-12486
在天	-12487
孤儿	-12488
小心	-12489
格局	-12490
死了	-12491
比分	-12492
种群	-12493
门口	-12494
军政府	-12495
因斯坦	-12496
坐落于	-12497
多项式	-12498
hann	-12499
四十二年	-12500
和多	-12501
尼察	-12502
平日	-12503
焦虑	-12504
行进	-12505
镰仓	-12506
上发表	-12507
出身的	-12508
亚伯	-12509
切割	-12510
夜晚	-12511
晤士	-12512
莫里	-12513
藩主	-12514
说道	-12515
豪斯	-12516
迪逊	-12517
首支	-12518
iOS	-12519
osh	-12520
tel	-12521
万年前	-12522
伺服器	-12523
的关键	-12524
每年平均降雨量	-12525
Fe	-12526
会于	-12527
少校	-12528
札幌	-12529
楼层	-12530
猜测	-12531
论证	-12532
uan	-12533
▁Ge	-12534
人民的	-12535
以避免	-12536
党主席	-12537
副总理	-12538
当中的	-12539
日成立	-12540
的商业	-12541
正式宣布	-12542
分布于中国大	-12543
割让	-12544
友人	-12545
氏族	-12546
mon	-12547
的人物	-12548
平均水平	-12549
密西西比州	-12550
切换	-12551
连线	-12552
配偶	-12553
重启	-12554
▁定义	-12555
证明了	-12556
ское	-12557
年代初期	-12558
内侧	-12559
承建	-12560
摩擦	-12561
构思	-12562
的古	-12563
离散	-12564
荆州	-12565
解读	-12566
十字架	-12567
尖沙咀	-12568
尼克斯	-12569
的限制	-12570
第一期	-12571
工业大学	-12572
▁丹	-12573
先知	-12574
共振	-12575
德文	-12576
报社	-12577
略有	-12578
诗集	-12579
Man	-12580
▁本届	-12581
剩下的	-12582
英国人	-12583
都会区	-12584
开始进行	-12585
提供服务	-12586
是罗马尼亚	-12587
PL	-12588
丝绸	-12589
复旦	-12590
市委	-12591
摔角	-12592
明白	-12593
米高	-12594
釜山	-12595
ios	-12596
则是在	-12597
月期间	-12598
的同名	-12599
议会选举	-12600
政治部主任	-12601
▁雅	-12602
坠毁	-12603
并获	-12604
异构	-12605
政坛	-12606
umb	-12607
内设有	-12608
总公司	-12609
idge	-12610
▁Club	-12611
占总人口的	-12612
CT	-12613
▁广	-12614
不管	-12615
右派	-12616
哈迈	-12617
审讯	-12618
山下	-12619
必需	-12620
月由	-12621
热情	-12622
吉他手	-12623
和欧洲	-12624
和法国	-12625
引入了	-12626
位于法国奥克西塔尼大区	-12627
大地	-12628
莱尔	-12629
足利	-12630
地球上	-12631
有两种	-12632
的范围	-12633
通过的	-12634
九龙巴士	-12635
Li	-12636
▁短	-12637
▁约	-12638
判定	-12639
外科	-12640
安纳	-12641
残骸	-12642
民建	-12643
环状	-12644
端点	-12645
管控	-12646
GBT	-12647
与社会	-12648
中出现	-12649
瓦兹省	-12650
军事行动	-12651
▁Street	-12652
扎尔	-12653
提示	-12654
新秀	-12655
时年	-12656
蒂尔	-12657
阿德	-12658
ops	-12659
▁现在	-12660
佐治	-12661
升高	-12662
周六	-12663
安门	-12664
幸运	-12665
秦国	-12666
越野	-12667
车门	-12668
不足以	-12669
它可以	-12670
或者是	-12671
担任过	-12672
牙买加	-12673
ling	-12674
▁Boy	-12675
四分之一	-12676
维埃纳省	-12677
弗里德里希	-12678
三等	-12679
上级	-12680
使之	-12681
剂量	-12682
它于	-12683
开了	-12684
淮南	-12685
等到	-12686
触发	-12687
сел	-12688
▁My	-12689
▁节目	-12690
减少了	-12691
几个月	-12692
创建于	-12693
枚金牌	-12694
橄榄球	-12695
的中央	-12696
第四次	-12697
经常被	-12698
arch	-12699
年出版的	-12700
中区	-12701
停火	-12702
农田	-12703
戒严	-12704
投影	-12705
有个	-12706
看台	-12707
福岛	-12708
表态	-12709
躲避	-12710
日出战	-12711
至今仍	-12712
布鲁塞尔	-12713
一并	-12714
不像	-12715
发酵	-12716
在马	-12717
最先	-12718
特纳	-12719
花了	-12720
▁应用	-12721
恢复了	-12722
珊瑚礁	-12723
▁Girl	-12724
东边	-12725
交涉	-12726
全军	-12727
市立	-12728
揭示	-12729
救出	-12730
杂交	-12731
标语	-12732
精度	-12733
ada	-12734
区域的	-12735
冠军联赛	-12736
AB	-12737
▁柳	-12738
主委	-12739
使徒	-12740
创伤	-12741
榜首	-12742
的国	-12743
史学家	-12744
ross	-12745
市委书记	-12746
藏传佛教	-12747
Oricon	-12748
上限	-12749
存放	-12750
开元	-12751
施塔	-12752
是次	-12753
武将	-12754
督察	-12755
票选	-12756
题为	-12757
inc	-12758
媒体的	-12759
球队的	-12760
的东西	-12761
第三代	-12762
▁俱乐部	-12763
Ex	-12764
千年	-12765
受命	-12766
底栖	-12767
故宫	-12768
教派	-12769
施加	-12770
苏拉	-12771
麦卡	-12772
执导的	-12773
执政党	-12774
甚至是	-12775
号线的地铁	-12776
▁木	-12777
五位	-12778
启蒙	-12779
就要	-12780
巨型	-12781
残余	-12782
电器	-12783
的李	-12784
防控	-12785
预先	-12786
不包括	-12787
出版物	-12788
第三季	-12789
亿元人民币	-12790
▁University	-12791
Ag	-12792
da	-12793
估算	-12794
水位	-12795
派员	-12796
清治	-12797
经国	-12798
署长	-12799
转战	-12800
道尔	-12801
隐居	-12802
unt	-12803
优秀的	-12804
制造业	-12805
岁以上	-12806
的对象	-12807
科学与	-12808
记忆体	-12809
ange	-12810
中位	-12811
伴奏	-12812
安区	-12813
波德	-12814
现址	-12815
蜿蜒	-12816
贝里	-12817
馆长	-12818
沃尔夫	-12819
ster	-12820
英国伦敦	-12821
▁主	-12822
卡纳	-12823
新庄	-12824
翅膀	-12825
舰长	-12826
还能	-12827
地马拉	-12828
年时的	-12829
的命令	-12830
霍华德	-12831
mann	-12832
城市公共交通	-12833
tainment	-12834
与王	-12835
二八	-12836
并发	-12837
棕榈	-12838
突围	-12839
▁奖项	-12840
周围的	-12841
旅客列车	-12842
Sm	-12843
及第	-12844
失效	-12845
安抚	-12846
法则	-12847
看出	-12848
线在	-12849
大阪府	-12850
第一家	-12851
一女	-12852
佩戴	-12853
列夫	-12854
味道	-12855
实录	-12856
效忠	-12857
明末	-12858
燃油	-12859
瓦尼	-12860
的的	-12861
聪明	-12862
表述	-12863
轮胎	-12864
凯尔特	-12865
的原始	-12866
的路线	-12867
自动化	-12868
是乌克兰的村落	-12869
As	-12870
va	-12871
两天	-12872
哥尔	-12873
四国	-12874
沃夫	-12875
洋行	-12876
清单	-12877
籍贯	-12878
rew	-12879
也因为	-12880
了这一	-12881
只剩下	-12882
布鲁斯	-12883
ally	-12884
▁Per	-12885
乐章	-12886
张国	-12887
文昌	-12888
淹没	-12889
Mag	-12890
以确保	-12891
有三个	-12892
工程学院	-12893
环境保护	-12894
▁曼	-12895
一一	-12896
也从	-12897
产权	-12898
尼科	-12899
希德	-12900
开支	-12901
渡过	-12902
潮流	-12903
特工	-12904
维吉	-12905
门下	-12906
将成为	-12907
开始时	-12908
第二批	-12909
路德维希	-12910
▁该小行星	-12911
便于	-12912
军籍	-12913
吉拉	-12914
处置	-12915
早晨	-12916
物语	-12917
西域	-12918
设为	-12919
邻居	-12920
雇主	-12921
露天	-12922
魔鬼	-12923
交界处	-12924
固定的	-12925
报道称	-12926
控制器	-12927
聚合物	-12928
设置了	-12929
MD	-12930
一本	-12931
公厘	-12932
叔叔	-12933
合称	-12934
启德	-12935
是非	-12936
晋国	-12937
机上	-12938
融资	-12939
olf	-12940
uth	-12941
▁Am	-12942
▁Sm	-12943
不符合	-12944
为地下	-12945
可能在	-12946
和德国	-12947
都是在	-12948
其他地区	-12949
Tr	-12950
为前	-12951
伯克	-12952
历届	-12953
回顾	-12954
嵌入	-12955
拉里	-12956
追加	-12957
阴阳	-12958
陪审	-12959
克林顿	-12960
地下铁	-12961
是一首	-12962
者之一	-12963
儿岛	-12964
六四	-12965
太和	-12966
她被	-12967
该属	-12968
IVE	-12969
ali	-12970
▁铁路	-12971
开始对	-12972
一级方程式	-12973
年夏季奥运会	-12974
在任	-12975
坟墓	-12976
的遗	-12977
藏族	-12978
降为	-12979
高潮	-12980
▁Ab	-12981
人民军	-12982
延伸到	-12983
曾参加	-12984
泰晤士	-12985
能力的	-12986
电视广播	-12987
ki	-12988
中为	-12989
人格	-12990
十个	-12991
召回	-12992
家园	-12993
抢救	-12994
日及	-12995
率的	-12996
电阻	-12997
纳税	-12998
草科	-12999
订阅	-13000
输给	-13001
文化部	-13002
的艺术	-13003
网站上	-13004
历史上的	-13005
印第安纳州	-13006
上奏	-13007
和不	-13008
小队	-13009
永恒	-13010
用语	-13011
百强	-13012
贿赂	-13013
违规	-13014
下一个	-13015
制成的	-13016
教会的	-13017
没有被	-13018
有限责任	-13019
go	-13020
下滑	-13021
也都	-13022
于中	-13023
和前	-13024
备忘	-13025
奥会	-13026
尽量	-13027
幼虫	-13028
德森	-13029
格伦	-13030
渠道	-13031
缓冲	-13032
▁此后	-13033
后来又	-13034
而获得	-13035
▁Mon	-13036
威力	-13037
港的	-13038
电缆	-13039
芯片	-13040
见的	-13041
鱼的	-13042
齐国	-13043
亚当斯	-13044
克里克	-13045
公布的	-13046
布莱克	-13047
成年人	-13048
的大量	-13049
▁Lim	-13050
大学校长	-13051
英国政府	-13052
选举结果	-13053
一款	-13054
召唤	-13055
布洛	-13056
座的	-13057
文库	-13058
流感	-13059
答案	-13060
蔓延	-13061
西至	-13062
饱和	-13063
ret	-13064
曾经是	-13065
当中包括	-13066
acritic	-13067
▁宝	-13068
之王	-13069
分出	-13070
变革	-13071
宿主	-13072
纪元	-13073
聂伯	-13074
诈骗	-13075
达拉	-13076
门票	-13077
防治	-13078
魅力	-13079
印度的	-13080
已经有	-13081
平方呎	-13082
▁Mag	-13083
中央委员	-13084
弗朗索瓦	-13085
不远	-13086
儒家	-13087
免于	-13088
反驳	-13089
字的	-13090
帕特	-13091
的公	-13092
该岛	-13093
的原则	-13094
目前已	-13095
work	-13096
卫生组织	-13097
技术学院	-13098
的最后一	-13099
佩里	-13100
信件	-13101
建构	-13102
当他	-13103
指的	-13104
排水	-13105
Dan	-13106
aut	-13107
反应堆	-13108
圣诞节	-13109
高句丽	-13110
首次亮相	-13111
▁John	-13112
坚守	-13113
文档	-13114
章程	-13115
▁km	-13116
▁马尔	-13117
云林县	-13118
大区的	-13119
等地的	-13120
肯尼迪	-13121
Alex	-13122
▁International	-13123
三间	-13124
底盘	-13125
掠夺	-13126
残酷	-13127
浮雕	-13128
的好	-13129
的性	-13130
追捕	-13131
oul	-13132
工业区	-13133
BI	-13134
On	-13135
人质	-13136
优点	-13137
侍中	-13138
才被	-13139
推特	-13140
旧称	-13141
now	-13142
他们是	-13143
只有在	-13144
临时政府	-13145
文化中心	-13146
军事委员会	-13147
▁坎	-13148
人及	-13149
外语	-13150
家臣	-13151
巴顿	-13152
弹匣	-13153
影院	-13154
歌迷	-13155
气流	-13156
流星	-13157
登辉	-13158
称其	-13159
继而	-13160
西面	-13161
通风	-13162
其实是	-13163
吸血鬼	-13164
虽然在	-13165
ason	-13166
BR	-13167
婚后	-13168
归国	-13169
损毁	-13170
提拔	-13171
牛奶	-13172
erm	-13173
成都市	-13174
排水量	-13175
的新闻	-13176
可追溯至	-13177
职棒大联盟	-13178
▁恩	-13179
▁等	-13180
互通	-13181
他因	-13182
保禄	-13183
她和	-13184
承办	-13185
折返	-13186
拉越	-13187
泽民	-13188
玄宗	-13189
现状	-13190
等国	-13191
解说	-13192
逃避	-13193
▁形态	-13194
于台湾	-13195
底特律	-13196
牠们的	-13197
的成功	-13198
中国共产党党员	-13199
常驻	-13200
权限	-13201
特权	-13202
现身	-13203
失败后	-13204
帖木儿	-13205
烂番茄	-13206
科学研究	-13207
勇气	-13208
北纬	-13209
塔的	-13210
多半	-13211
天线	-13212
恶意	-13213
攻破	-13214
江湖	-13215
特许	-13216
状元	-13217
贵妃	-13218
安哥拉	-13219
文尼亚	-13220
波罗热	-13221
巴士总站	-13222
artin	-13223
DD	-13224
之歌	-13225
供水	-13226
修行	-13227
加沙	-13228
图示	-13229
宣统	-13230
洲际	-13231
知事	-13232
花样	-13233
ats	-13234
reg	-13235
公司于	-13236
劳动党	-13237
巴洛克	-13238
的比例	-13239
atus	-13240
Sa	-13241
TT	-13242
不适	-13243
伯明	-13244
南道	-13245
头发	-13246
官邸	-13247
无机	-13248
日照	-13249
永康	-13250
游说	-13251
真主	-13252
首发	-13253
两个月	-13254
分组赛	-13255
分配到	-13256
客户端	-13257
砂拉越	-13258
第四名	-13259
那不勒斯	-13260
中共中央总书记	-13261
Em	-13262
区段	-13263
家和	-13264
来台	-13265
沃伦	-13266
环线	-13267
而与	-13268
西山	-13269
这支	-13270
饮酒	-13271
司主事	-13272
最小的	-13273
有时候	-13274
的照片	-13275
超过了	-13276
▁只	-13277
模范	-13278
横向	-13279
纹章	-13280
铭文	-13281
麻省	-13282
黑白	-13283
号班机	-13284
年代起	-13285
才开始	-13286
的系统	-13287
为四	-13288
市和	-13289
沦陷	-13290
瓦利	-13291
短篇	-13292
耶鲁	-13293
锅炉	-13294
马鞍	-13295
与他的	-13296
人口约	-13297
州议会	-13298
的人数	-13299
默尔特	-13300
▁von	-13301
之神	-13302
住宿	-13303
加大	-13304
取名	-13305
射箭	-13306
拆解	-13307
收容	-13308
期为	-13309
爸爸	-13310
缅因	-13311
轻易	-13312
通缉	-13313
遇害	-13314
道奇	-13315
雷特	-13316
马的	-13317
▁du	-13318
▁最初	-13319
▁最终	-13320
东北与	-13321
开发商	-13322
是世界	-13323
歌剧院	-13324
白垩纪	-13325
▁Ind	-13326
总参谋部	-13327
根据美国	-13328
交替	-13329
就算	-13330
州际	-13331
平时	-13332
开火	-13333
搁置	-13334
旅长	-13335
星团	-13336
法典	-13337
稍后	-13338
美人	-13339
腾堡	-13340
航速	-13341
金朝	-13342
制定的	-13343
情报局	-13344
鲶形目	-13345
▁Exp	-13346
其他国家	-13347
FM	-13348
城中	-13349
实时	-13350
对面	-13351
斯通	-13352
是前	-13353
有大	-13354
椭圆	-13355
阔叶	-13356
鱼目	-13357
教科书	-13358
法兰西岛	-13359
一篇	-13360
三日	-13361
上班	-13362
主攻	-13363
弹头	-13364
挂牌	-13365
新设	-13366
派驻	-13367
设想	-13368
哈布斯	-13369
在巴黎	-13370
的元素	-13371
大韩民国	-13372
布尔什维克	-13373
Christ	-13374
会所	-13375
商讨	-13376
学中	-13377
敦促	-13378
羟基	-13379
▁Air	-13380
▁该小行星以	-13381
Ma	-13382
区长	-13383
后半	-13384
机密	-13385
欺骗	-13386
的红	-13387
的那	-13388
离去	-13389
获释	-13390
赛前	-13391
钢筋	-13392
功能的	-13393
现今的	-13394
蒙古族	-13395
Apple	-13396
agram	-13397
法国大革命	-13398
ja	-13399
内存	-13400
凯文	-13401
列举	-13402
名将	-13403
年级	-13404
求学	-13405
语支	-13406
风俗	-13407
ste	-13408
制片厂	-13409
台北县	-13410
在进行	-13411
被取消	-13412
错误的	-13413
ator	-13414
ript	-13415
第一书记	-13416
Ac	-13417
在原	-13418
将以	-13419
托管	-13420
日食	-13421
石刻	-13422
票数	-13423
老鼠	-13424
青衣	-13425
餐馆	-13426
馆藏	-13427
ida	-13428
▁组织	-13429
▁起源	-13430
不确定	-13431
印度教	-13432
总主教	-13433
神学院	-13434
经营的	-13435
被用作	-13436
统治时期	-13437
大都	-13438
明帝	-13439
林地	-13440
残留	-13441
流失	-13442
积累	-13443
联酋	-13444
襄阳	-13445
轶事	-13446
也不会	-13447
备忘录	-13448
患者的	-13449
来表示	-13450
波利斯	-13451
耶和华	-13452
郡太守	-13453
▁Road	-13454
侍下	-13455
信中	-13456
克特	-13457
决战	-13458
图斯	-13459
城乡	-13460
官吏	-13461
度为	-13462
开出	-13463
次郎	-13464
浪费	-13465
米特	-13466
语族	-13467
跳水	-13468
▁Ag	-13469
的主力	-13470
的自然	-13471
ated	-13472
ican	-13473
二战期间	-13474
范围内的	-13475
县负责管辖	-13476
▁奇	-13477
二者	-13478
侵入	-13479
力士	-13480
德鲁	-13481
海啸	-13482
终年	-13483
终端	-13484
继母	-13485
陵墓	-13486
音速	-13487
齿轮	-13488
inn	-13489
一年的	-13490
副省长	-13491
格兰特	-13492
第二任	-13493
米歇尔	-13494
采访时	-13495
的支持者	-13496
▁区	-13497
勋爵	-13498
号称	-13499
复原	-13500
补贴	-13501
会使用	-13502
基准	-13503
外借	-13504
小区	-13505
居留	-13506
山本	-13507
惨重	-13508
模组	-13509
毛里	-13510
开设了	-13511
的小型	-13512
耶稣会	-13513
iana	-13514
orts	-13515
游泳运动员	-13516
诺曼底大区	-13517
张录音室专辑	-13518
各级文物保护单位	-13519
功臣	-13520
在台	-13521
德温	-13522
河和	-13523
若望	-13524
跨国	-13525
isp	-13526
▁媒体	-13527
志愿军	-13528
通常为	-13529
需要的	-13530
扎波罗热	-13531
xy	-13532
全县	-13533
内心	-13534
出产	-13535
日出	-13536
时隔	-13537
梅斯	-13538
舍人	-13539
装修	-13540
递交	-13541
里士	-13542
Tom	-13543
ili	-13544
在纽约	-13545
巴拉圭	-13546
施泰因	-13547
的教育	-13548
认为自	-13549
的一个村	-13550
内布拉斯加州	-13551
位元	-13552
劝说	-13553
嘻哈	-13554
它由	-13555
小麦	-13556
平反	-13557
拳道	-13558
联同	-13559
贝利	-13560
面具	-13561
ule	-13562
▁It	-13563
大教堂	-13564
奠定了	-13565
第三届	-13566
而这些	-13567
这种情况	-13568
羽毛球国际赛	-13569
出使	-13570
卡里	-13571
厌恶	-13572
四次	-13573
张氏	-13574
更快	-13575
深远	-13576
白银	-13577
迁到	-13578
指定为	-13579
系教授	-13580
aria	-13581
▁Play	-13582
为辐鳍鱼纲鲶形目	-13583
中华人民共和国政府	-13584
该省份为法国北部内	-13585
Metacritic	-13586
▁柯	-13587
世家	-13588
在家	-13589
少于	-13590
工委	-13591
性地	-13592
插图	-13593
科雷	-13594
罗素	-13595
镇江	-13596
了中国	-13597
机务段	-13598
由香港	-13599
的政府	-13600
赫尔松	-13601
亚特兰大	-13602
资产阶级	-13603
该市有人口	-13604
新增境外输入	-13605
不相	-13606
东山	-13607
天主	-13608
开会	-13609
开普	-13610
引爆	-13611
提斯	-13612
数以	-13613
旁的	-13614
活塞	-13615
相望	-13616
赏识	-13617
▁乾隆	-13618
▁彼得	-13619
师师长	-13620
年改为	-13621
设计和	-13622
国庆	-13623
塞斯	-13624
并行	-13625
找出	-13626
改正	-13627
湿润	-13628
百老	-13629
而该	-13630
车祸	-13631
顺天	-13632
会出现	-13633
可持续	-13634
大城市	-13635
委任为	-13636
巴比伦	-13637
年完工	-13638
日抵达	-13639
马达加斯加	-13640
不顾	-13641
乡民	-13642
公孙	-13643
城邦	-13644
外墙	-13645
托克	-13646
藏品	-13647
会影响	-13648
小时候	-13649
心脏病	-13650
然后在	-13651
相邻的	-13652
降水量	-13653
歌唱大赛	-13654
职业足球	-13655
阿拉斯加	-13656
ander	-13657
▁City	-13658
án	-13659
一律	-13660
个镇	-13661
亏损	-13662
僧人	-13663
冈山	-13664
当成	-13665
日渐	-13666
玄武	-13667
自卫	-13668
▁体育	-13669
但仍然	-13670
尔斯基	-13671
注意力	-13672
修理	-13673
特有	-13674
钱币	-13675
门将	-13676
高祖	-13677
黎各	-13678
▁贝尔	-13679
每个人	-13680
自身的	-13681
萨尔特	-13682
表面的	-13683
▁毕业于	-13684
国立大学	-13685
国立台湾大学	-13686
FA	-13687
别于	-13688
反叛	-13689
林的	-13690
王家	-13691
高桥	-13692
龙山	-13693
分舰队	-13694
对他的	-13695
志愿者	-13696
收到了	-13697
构成的	-13698
的思想	-13699
here	-13700
▁车站周边	-13701
RI	-13702
一无	-13703
不起	-13704
周五	-13705
影音	-13706
指派	-13707
污水	-13708
船队	-13709
草本	-13710
迎战	-13711
阿登	-13712
asc	-13713
万港元	-13714
其名称	-13715
日结束	-13716
百老汇	-13717
布鲁克林	-13718
进一步的	-13719
民主进步党	-13720
是位于美国伊利诺伊州	-13721
一提	-13722
倒数	-13723
制订	-13724
匿名	-13725
吉思	-13726
审核	-13727
方位	-13728
是第	-13729
的发	-13730
街的	-13731
和一些	-13732
国内外	-13733
将军衔	-13734
敖德萨	-13735
教区主教	-13736
获得一枚银牌	-13737
▁最	-13738
与南	-13739
丰臣	-13740
全场	-13741
半年	-13742
增压	-13743
水系	-13744
病情	-13745
聚焦	-13746
衰变	-13747
读音	-13748
轮椅	-13749
里德	-13750
南北向	-13751
埃里克	-13752
定居点	-13753
是欧洲	-13754
的批评	-13755
爱因斯坦	-13756
iPhone	-13757
中央人民政府	-13758
▁Entertainment	-13759
为正	-13760
勇者	-13761
和尚	-13762
天台	-13763
建的	-13764
托洛	-13765
板上	-13766
片头	-13767
por	-13768
▁本片	-13769
▁通过	-13770
不一定	-13771
地球的	-13772
▁加拿大	-13773
剑桥大学	-13774
天主教会	-13775
批复同意	-13776
自由主义	-13777
位于法国奥弗涅	-13778
伊犁	-13779
内特	-13780
出击	-13781
分院	-13782
华尔	-13783
协和	-13784
均以	-13785
官网	-13786
帝汶	-13787
应变	-13788
德纳	-13789
报章	-13790
提亚	-13791
整编	-13792
王星	-13793
维利	-13794
营救	-13795
eck	-13796
人口有	-13797
报告中	-13798
加来海峡	-13799
乃木	-13800
冻结	-13801
北边	-13802
塔吉	-13803
家具	-13804
带的	-13805
干达	-13806
拥护	-13807
日因	-13808
起步	-13809
辞典	-13810
阳明	-13811
韦斯	-13812
pha	-13813
之后又	-13814
巴赫河	-13815
的称号	-13816
社会学	-13817
光滑	-13818
全会	-13819
劳斯	-13820
士官	-13821
巨蛋	-13822
战功	-13823
是无	-13824
暗中	-13825
朱元	-13826
温室	-13827
男友	-13828
自幼	-13829
陵兰	-13830
静脉	-13831
以及对	-13832
任何人	-13833
冠军赛	-13834
观赏鱼	-13835
▁Val	-13836
因为他们	-13837
神奈川县	-13838
下层	-13839
之心	-13840
出血	-13841
川普	-13842
广阔	-13843
环流	-13844
MTV	-13845
Val	-13846
▁it	-13847
传染病	-13848
哥尔摩	-13849
威斯康	-13850
年毕业	-13851
是目前	-13852
英吉利	-13853
部门的	-13854
二十七年	-13855
吉尔吉斯	-13856
社会科学院	-13857
SK	-13858
会使	-13859
可梦	-13860
均被	-13861
对峙	-13862
导向	-13863
樱花	-13864
舒适	-13865
著手	-13866
认真	-13867
走私	-13868
长征	-13869
幼稚园	-13870
蒙古国	-13871
重要性	-13872
是南极洲的山峰	-13873
NH	-13874
ih	-13875
▁老	-13876
伪装	-13877
例行	-13878
在水	-13879
开垦	-13880
扭曲	-13881
拉拉	-13882
新潟	-13883
正选	-13884
沉默	-13885
派兵	-13886
落选	-13887
西的	-13888
ipp	-13889
也无法	-13890
年至今	-13891
研讨会	-13892
鹿儿岛	-13893
EG	-13894
一举	-13895
中外	-13896
为王	-13897
举例	-13898
卡普	-13899
和李	-13900
四季	-13901
数年	-13902
诅咒	-13903
预选	-13904
▁月台	-13905
地图上	-13906
埃纳省	-13907
奥巴马	-13908
游戏机	-13909
有限责任公司	-13910
中信	-13911
希特	-13912
幽灵	-13913
种的	-13914
试剂	-13915
赫梅	-13916
他曾在	-13917
并最终	-13918
亿美元的	-13919
实际上是	-13920
萨尔瓦多	-13921
duction	-13922
上疏	-13923
北周	-13924
校内	-13925
▁Tr	-13926
▁利用	-13927
▁宗教	-13928
产品的	-13929
比利亚	-13930
而导致	-13931
香港天文台	-13932
We	-13933
修女	-13934
媒介	-13935
巫师	-13936
渡轮	-13937
离世	-13938
红袜	-13939
露出	-13940
大气层	-13941
的记录	-13942
第十八	-13943
音乐的	-13944
交通运输	-13945
所属行政区域	-13946
下水	-13947
作法	-13948
则称	-13949
前面	-13950
水力	-13951
谨慎	-13952
这与	-13953
ING	-13954
了这个	-13955
但最后	-13956
定名为	-13957
规模的	-13958
食用鱼	-13959
▁Mac	-13960
▁马来西亚	-13961
位于法国勃艮第	-13962
不出	-13963
仁宗	-13964
卡的	-13965
压倒	-13966
史迹	-13967
拉赫	-13968
施政	-13969
星等	-13970
此为	-13971
清河	-13972
送至	-13973
释迦	-13974
▁距离	-13975
东正教	-13976
国务卿	-13977
运动中	-13978
stit	-13979
哈布斯堡	-13980
外交政策	-13981
借助	-13982
则可	-13983
十万	-13984
完赛	-13985
更具	-13986
有四	-13987
经贸	-13988
WTA	-13989
▁un	-13990
▁旅游	-13991
巴尔干	-13992
并进行	-13993
的威胁	-13994
翻译成	-13995
费尔南	-13996
阶段的	-13997
▁常	-13998
三分	-13999
东经	-14000
中医	-14001
日对	-14002
浪潮	-14003
陶器	-14004
陷阱	-14005
不规则	-14006
分之二	-14007
多面体	-14008
市区的	-14009
年发表	-14010
颁发的	-14011
僧侣	-14012
奇怪	-14013
她也	-14014
小米	-14015
广为	-14016
很小	-14017
本国	-14018
汕头	-14019
混双	-14020
热烈	-14021
神明	-14022
美式	-14023
贞观	-14024
跟著	-14025
近海	-14026
预报	-14027
▁et	-14028
▁学术	-14029
小时的	-14030
等因素	-14031
西雅图	-14032
该节目	-14033
很大程度上	-14034
经过本地区	-14035
革命委员会	-14036
一战	-14037
同胞	-14038
多以	-14039
大成	-14040
开拍	-14041
此书	-14042
比锡	-14043
阿韦	-14044
雄鱼	-14045
分打点	-14046
发现自	-14047
有利于	-14048
的著作	-14049
http	-14050
▁扎	-14051
乌兰	-14052
公理	-14053
山庄	-14054
岗位	-14055
布林	-14056
幼年	-14057
曾以	-14058
法例	-14059
阿兹	-14060
马格	-14061
鲁特	-14062
unn	-14063
▁We	-14064
球队在	-14065
调整为	-14066
raph	-14067
▁Net	-14068
中国铁路	-14069
云南等地	-14070
分布在中国大	-14071
专访	-14072
二楼	-14073
多姆	-14074
纵火	-14075
铁矿	-14076
第十六	-14077
Type	-14078
克里斯托	-14079
指定地区	-14080
斯洛文尼亚	-14081
出国	-14082
取缔	-14083
所致	-14084
滤波	-14085
通货	-14086
重回	-14087
黑洞	-14088
Sal	-14089
▁越南	-14090
前身是	-14091
升级为	-14092
哥伦布	-14093
的方向	-14094
的来源	-14095
的领土	-14096
下达	-14097
侮辱	-14098
击溃	-14099
大国	-14100
恐慌	-14101
把自	-14102
概况	-14103
税务	-14104
纲领	-14105
给定	-14106
不超过	-14107
发展为	-14108
的状况	-14109
的许多	-14110
莱茵兰	-14111
跆拳道	-14112
发生冲突	-14113
不分	-14114
不堪	-14115
五角	-14116
佛寺	-14117
县内	-14118
基斯	-14119
宫内	-14120
祭司	-14121
行军	-14122
摧毁了	-14123
的真实	-14124
获选为	-14125
詹姆士	-14126
足总杯	-14127
电视频道	-14128
RA	-14129
与陈	-14130
九个	-14131
准许	-14132
区块	-14133
字幕	-14134
宣扬	-14135
宾馆	-14136
底质	-14137
无数	-14138
昆士	-14139
红磡	-14140
航母	-14141
豪森	-14142
身穿	-14143
orm	-14144
分钟内	-14145
已知的	-14146
万户	-14147
之夜	-14148
今年	-14149
侍卫	-14150
守门	-14151
承包	-14152
日月	-14153
社的	-14154
交响曲	-14155
体育会	-14156
执行长	-14157
LGBT	-14158
几乎所有	-14159
被命名为	-14160
CG	-14161
东尼	-14162
也要	-14163
出院	-14164
商议	-14165
提早	-14166
游记	-14167
特曼	-14168
练马	-14169
芭蕾	-14170
贝勒	-14171
阿卡	-14172
乾隆帝	-14173
制定了	-14174
哈里斯	-14175
等设施	-14176
负责管理	-14177
重要作用	-14178
▁鲍	-14179
佛像	-14180
在拉	-14181
大专	-14182
女生	-14183
指称	-14184
精通	-14185
警署	-14186
近亲	-14187
陵县	-14188
CPU	-14189
bit	-14190
将这些	-14191
有部分	-14192
年中华民国	-14193
执行委员会	-14194
no	-14195
其于	-14196
和拉	-14197
炸药	-14198
牛肉	-14199
立交	-14200
聘为	-14201
血压	-14202
金色	-14203
集资	-14204
和发展	-14205
气象站	-14206
三十六年	-14207
代表团是	-14208
言论自由	-14209
中尉	-14210
俗名	-14211
参赞	-14212
右手	-14213
回乡	-14214
杰明	-14215
淋巴	-14216
温州	-14217
烟台	-14218
猩猩	-14219
玉环	-14220
表扬	-14221
迈克	-14222
国内的	-14223
年落成	-14224
并提供	-14225
维生素	-14226
青年团	-14227
医科大学	-14228
年起担任	-14229
At	-14230
伊莎	-14231
南山	-14232
川崎	-14233
日为	-14234
机队	-14235
材质	-14236
畜牧	-14237
盗窃	-14238
ama	-14239
布里亚	-14240
年英国	-14241
的早期	-14242
eder	-14243
▁初	-14244
▁查	-14245
中对	-14246
在圣	-14247
天才	-14248
糟糕	-14249
编排	-14250
而他	-14251
der	-14252
▁El	-14253
皇太后	-14254
行政村	-14255
逝世后	-14256
人工智能	-14257
汉密尔顿	-14258
ffice	-14259
三台	-14260
三面	-14261
宫的	-14262
度量	-14263
接见	-14264
熊猫	-14265
跳跃	-14266
黄蜂	-14267
▁有些	-14268
定义的	-14269
涅夫勒	-14270
只有一个	-14271
成员之一	-14272
阿姆斯特丹	-14273
人口普查指定地区	-14274
中型	-14275
卖给	-14276
合格	-14277
安平	-14278
家村	-14279
开来	-14280
活力	-14281
竟然	-14282
马位	-14283
高兴	-14284
Web	-14285
ily	-14286
ote	-14287
▁Pe	-14288
收购了	-14289
汝拉省	-14290
竞技场	-14291
都是由	-14292
icode	-14293
俄罗斯帝国	-14294
Pr	-14295
zo	-14296
修饰	-14297
努瓦	-14298
叶片	-14299
土星	-14300
头目	-14301
急剧	-14302
清初	-14303
私下	-14304
稀少	-14305
但这些	-14306
工程于	-14307
意义的	-14308
来纳州	-14309
的能量	-14310
入侵乌克兰	-14311
该省份为法国西南部	-14312
军民	-14313
凤山	-14314
感动	-14315
把它	-14316
致死	-14317
长野	-14318
大师赛	-14319
无障碍	-14320
生活于	-14321
签订了	-14322
记录了	-14323
中排名第	-14324
奥匈帝国	-14325
earch	-14326
▁comp	-14327
办公室主任	-14328
Er	-14329
住了	-14330
后果	-14331
大殿	-14332
奉行	-14333
惊悚	-14334
有点	-14335
消散	-14336
游牧	-14337
王公	-14338
车路	-14339
首演	-14340
▁最后	-14341
外国语	-14342
源自于	-14343
连斯基	-14344
国民议会	-14345
台北市政府	-14346
企鹅	-14347
低音	-14348
偏南	-14349
光荣	-14350
冲刺	-14351
凯恩	-14352
和田	-14353
外形	-14354
存有	-14355
帝王	-14356
开头	-14357
油画	-14358
测定	-14359
脸书	-14360
落的	-14361
继续在	-14362
▁Eng	-14363
中国内地	-14364
地理位置	-14365
抗议活动	-14366
奥斯卡最佳	-14367
中西	-14368
奥克	-14369
巡防	-14370
常侍	-14371
投掷	-14372
斩首	-14373
星级	-14374
水师	-14375
石碑	-14376
花科	-14377
词语	-14378
轮廓	-14379
不允许	-14380
东临上	-14381
可使用	-14382
的首个	-14383
社区的	-14384
党组成员	-14385
国民大会	-14386
还有一个	-14387
香港特别行政区	-14388
仙女	-14389
值为	-14390
推官	-14391
玉山	-14392
称帝	-14393
议案	-14394
该届	-14395
败于	-14396
韩语	-14397
麻烦	-14398
龙省	-14399
▁专辑	-14400
位于今	-14401
加拉瓜	-14402
宁波市	-14403
巧克力	-14404
雅加达	-14405
北爱尔兰	-14406
协商会议	-14407
号线车站	-14408
下放	-14409
之作	-14410
在后	-14411
拉蒙	-14412
法制	-14413
神宗	-14414
乐队的	-14415
向东北	-14416
居民区	-14417
州政府	-14418
建筑的	-14419
需要在	-14420
波多黎各	-14421
皇家空军	-14422
entre	-14423
oseph	-14424
▁如	-14425
▁时	-14426
两组	-14427
中都	-14428
之死	-14429
也门	-14430
启示	-14431
圣马	-14432
开场	-14433
欧文	-14434
瘫痪	-14435
编年	-14436
路由	-14437
黄昏	-14438
创办了	-14439
博物院	-14440
理论上	-14441
▁Har	-14442
是一个位于	-14443
出狱	-14444
到发	-14445
往后	-14446
授课	-14447
泰坦	-14448
烹饪	-14449
病患	-14450
神像	-14451
表情	-14452
衰竭	-14453
静冈	-14454
鼓手	-14455
俄勒冈	-14456
安全的	-14457
朱元璋	-14458
apan	-14459
有不同的	-14460
串流	-14461
交道	-14462
佛山	-14463
核糖	-14464
汇丰	-14465
科举	-14466
股价	-14467
轨迹	-14468
魔戒	-14469
鲁瓦	-14470
了一名	-14471
的颜色	-14472
的影响力	-14473
▁按	-14474
一侧	-14475
与张	-14476
又作	-14477
异议	-14478
罗尼	-14479
美容	-14480
远远	-14481
为目标	-14482
喀麦隆	-14483
新四军	-14484
的各种	-14485
的选手	-14486
▁Coun	-14487
人民检察院	-14488
国际电影节	-14489
mi	-14490
三峡	-14491
不好	-14492
严肃	-14493
刷新	-14494
反之	-14495
图的	-14496
巡按	-14497
效能	-14498
波动	-14499
苏尔	-14500
西湖	-14501
隐私	-14502
颇为	-14503
▁保护	-14504
克莱尔	-14505
改组为	-14506
由日本	-14507
男歌手	-14508
ters	-14509
▁钱	-14510
地貌	-14511
弹簧	-14512
战前	-14513
摩纳	-14514
河上	-14515
诱导	-14516
赦免	-14517
err	-14518
▁do	-14519
世锦赛	-14520
代牧区	-14521
在东京	-14522
第十五	-14523
中山大学	-14524
广播电视台	-14525
新型冠状病毒	-14526
专制	-14527
名胜	-14528
宪政	-14529
熔岩	-14530
胞胎	-14531
▁历任	-14532
专辑榜	-14533
人员的	-14534
其范围	-14535
另一名	-14536
年出生	-14537
提高了	-14538
花岗岩	-14539
语言学	-14540
世界冠军	-14541
中国古代	-14542
副司令员	-14543
这意味着	-14544
PI	-14545
iP	-14546
▁我	-14547
九巴	-14548
值的	-14549
利文	-14550
围城	-14551
地说	-14552
外地	-14553
太极	-14554
奇的	-14555
定罪	-14556
精彩	-14557
音源	-14558
高棉	-14559
▁As	-14560
回国后	-14561
研究会	-14562
erry	-14563
▁Rob	-14564
中华台北	-14565
威廉姆斯	-14566
航空航天	-14567
Ap	-14568
占了	-14569
因于	-14570
归于	-14571
或在	-14572
矿产	-14573
词典	-14574
中提到	-14575
也受到	-14576
四十年	-14577
是使用	-14578
考古学家	-14579
irect	-14580
科会试第一百	-14581
oe	-14582
▁玛	-14583
偏向	-14584
八达	-14585
兵库	-14586
兵役	-14587
其与	-14588
再转	-14589
口头	-14590
政司	-14591
证人	-14592
辖境	-14593
长久	-14594
阳人	-14595
▁朝鲜	-14596
协会的	-14597
可能与	-14598
法轮功	-14599
国民小学	-14600
不停	-14601
吉安	-14602
巅峰	-14603
席次	-14604
弥补	-14605
致电	-14606
重心	-14607
ICE	-14608
哥罗德	-14609
上课	-14610
更在	-14611
有其	-14612
灯光	-14613
王刘	-14614
筹集	-14615
胜负	-14616
行道	-14617
▁ro	-14618
其中最	-14619
奥克兰	-14620
没有人	-14621
的性质	-14622
艾哈迈	-14623
行动中	-14624
控制系统	-14625
该村面积	-14626
他就	-14627
加纳	-14628
南与	-14629
叔父	-14630
取材	-14631
古兰	-14632
回去	-14633
围墙	-14634
拥立	-14635
核准	-14636
离任	-14637
舍尔	-14638
韦恩	-14639
市场上	-14640
年法国	-14641
欧洲的	-14642
特色的	-14643
学院院长	-14644
一大	-14645
但从	-14646
停产	-14647
和自	-14648
坚定	-14649
帕斯	-14650
惊讶	-14651
机和	-14652
生化	-14653
的半	-14654
的本	-14655
螺科	-14656
imp	-14657
▁随后	-14658
二十五	-14659
些时候	-14660
增加至	-14661
都拉斯	-14662
佐藤	-14663
开口	-14664
汉文	-14665
瓦勒	-14666
绿地	-14667
美金	-14668
诺威	-14669
▁乔治	-14670
是否有	-14671
美少女	-14672
运动场	-14673
已经成为	-14674
ao	-14675
▁п	-14676
一球	-14677
中段	-14678
交出	-14679
亦即	-14680
伊势	-14681
元和	-14682
出面	-14683
击毙	-14684
占用	-14685
县立	-14686
布勒	-14687
广域	-14688
生死	-14689
豁免	-14690
骨头	-14691
▁发现	-14692
原定于	-14693
训练班	-14694
麦迪逊	-14695
其种加词	-14696
天主教徒	-14697
形成一个	-14698
的主题曲	-14699
绝大部分	-14700
Charles	-14701
SR	-14702
与东	-14703
冰原	-14704
升格	-14705
华特	-14706
卡片	-14707
和弦	-14708
家用	-14709
拉达	-14710
曾获	-14711
激励	-14712
琉璃	-14713
白沙	-14714
紫外	-14715
莱姆	-14716
雨量	-14717
黎世	-14718
rib	-14719
塞浦路	-14720
的条件	-14721
第一条	-14722
利尼茨基	-14723
科给事中	-14724
board	-14725
围困	-14726
在小	-14727
城隍	-14728
墓志	-14729
外表	-14730
女皇	-14731
布吕	-14732
春节	-14733
考生	-14734
衔接	-14735
词曲	-14736
账户	-14737
身后	-14738
达尼	-14739
ely	-14740
一些人	-14741
一样的	-14742
主办的	-14743
凯瑟琳	-14744
历史文化	-14745
No	-14746
tr	-14747
什叶	-14748
以内	-14749
国人	-14750
布瓦	-14751
引人	-14752
强风	-14753
插画	-14754
欲望	-14755
气球	-14756
浩特	-14757
芒什	-14758
莱德	-14759
赫鲁	-14760
阴影	-14761
霍普	-14762
ISO	-14763
创立于	-14764
应天府	-14765
赫尔曼	-14766
场比赛中	-14767
正式出道	-14768
是位于美国加利福尼亚州	-14769
交配	-14770
假如	-14771
发光	-14772
在职	-14773
大拿	-14774
工场	-14775
日时	-14776
格利	-14777
泄露	-14778
波希	-14779
皈依	-14780
联播	-14781
衡量	-14782
西晋	-14783
调解	-14784
他们将	-14785
星期日	-14786
每年的	-14787
的主张	-14788
艾利斯	-14789
▁Day	-14790
人民日报	-14791
共和国的	-14792
YP	-14793
侧线	-14794
厂房	-14795
取而	-14796
在野	-14797
塔恩	-14798
太太	-14799
宝贝	-14800
手动	-14801
熊本	-14802
马蒂	-14803
在政治	-14804
翻译为	-14805
ords	-14806
▁使用状况	-14807
Dr	-14808
ui	-14809
二千	-14810
北齐	-14811
卫兵	-14812
四面	-14813
天国	-14814
宁市	-14815
安的	-14816
放入	-14817
昆仑	-14818
明日	-14819
矮星	-14820
苏门	-14821
转录	-14822
这使	-14823
配属	-14824
集数	-14825
不属于	-14826
为背景	-14827
宝可梦	-14828
年生于	-14829
谢尔盖	-14830
驾驶员	-14831
▁Lin	-14832
公共卫生	-14833
总统大选	-14834
斯德哥尔摩	-14835
自动售票机	-14836
仍以	-14837
偏好	-14838
台视	-14839
女双	-14840
手稿	-14841
收养	-14842
断绝	-14843
杜鲁	-14844
武功	-14845
沃思	-14846
维尼	-14847
Sam	-14848
交通局	-14849
史上最	-14850
热尔省	-14851
现代的	-14852
被用来	-14853
vent	-14854
三十八年	-14855
德米特里	-14856
下跌	-14857
债券	-14858
免受	-14859
分拆	-14860
十名	-14861
原著	-14862
坚固	-14863
安南	-14864
客流	-14865
水流	-14866
舰上	-14867
蒙哥	-14868
该县	-14869
课题	-14870
送回	-14871
配件	-14872
高斯	-14873
▁这是	-14874
地亚哥	-14875
年台湾	-14876
民建联	-14877
活动家	-14878
而没有	-14879
蒋经国	-14880
流行文化	-14881
行政管理	-14882
属下的一个变种	-14883
Rh	-14884
公认	-14885
受贿	-14886
听闻	-14887
和海	-14888
塔瓦	-14889
宣战	-14890
情景	-14891
成份	-14892
普朗	-14893
月亮	-14894
末日	-14895
河岸	-14896
部族	-14897
重于	-14898
lit	-14899
两人在	-14900
吉思汗	-14901
格陵兰	-14902
海军的	-14903
的秘密	-14904
符腾堡	-14905
普林斯顿	-14906
的历史年代为	-14907
赫梅利尼茨基	-14908
LD	-14909
伊莉	-14910
共设	-14911
同属	-14912
支柱	-14913
教员	-14914
桥站	-14915
港台	-14916
答腊	-14917
英皇	-14918
麦当	-14919
麦金	-14920
与香港	-14921
催化剂	-14922
创建了	-14923
右侍郎	-14924
摩纳哥	-14925
新技术	-14926
混合物	-14927
的一款	-14928
的朋友	-14929
确定的	-14930
个人专辑	-14931
uy	-14932
▁受	-14933
▁总	-14934
▁班	-14935
▁盖	-14936
以示	-14937
士气	-14938
宴会	-14939
屡次	-14940
开馆	-14941
神论	-14942
选定	-14943
Cor	-14944
ety	-14945
hem	-14946
二战后	-14947
副总裁	-14948
发布会	-14949
曾获得	-14950
田纳西	-14951
的作者	-14952
unes	-14953
亦改制为	-14954
制作公司	-14955
城际铁路	-14956
英吉利海峡	-14957
东华	-14958
丹佛	-14959
假面	-14960
开源	-14961
征战	-14962
有约	-14963
糖尿	-14964
艾米	-14965
超出	-14966
eta	-14967
▁医疗	-14968
中扮演	-14969
吉伦特	-14970
政府和	-14971
的德国	-14972
节车厢	-14973
随后被	-14974
代表性的	-14975
可能导致	-14976
▁Amer	-14977
▁Company	-14978
▁齐	-14979
一是	-14980
七人	-14981
三司	-14982
主修	-14983
听从	-14984
撰文	-14985
收看	-14986
样品	-14987
英法	-14988
行经	-14989
觅食	-14990
重制	-14991
可做为	-14992
和一枚	-14993
尔的摩	-14994
▁在美国	-14995
无产阶级	-14996
witch	-14997
两支	-14998
偏北	-14999
和上	-15000
外出	-15001
安庆	-15002
日托	-15003
汉斯	-15004
绿化	-15005
被动	-15006
西奥	-15007
负载	-15008
野手	-15009
门店	-15010
阿什	-15011
了一段	-15012
争议的	-15013
威廉斯	-15014
总统的	-15015
感受到	-15016
李登辉	-15017
身份证	-15018
都柏林	-15019
防御率	-15020
他的名字	-15021
成为中国	-15022
▁剧情简介	-15023
分布于非洲	-15024
uf	-15025
丛林	-15026
交谈	-15027
可乐	-15028
孵化	-15029
自成	-15030
起于	-15031
载人	-15032
辨识	-15033
ush	-15034
会造成	-15035
区内的	-15036
卢瓦雷	-15037
参加过	-15038
奥古斯	-15039
宜诺斯	-15040
库尔德	-15041
收录在	-15042
白色的	-15043
的后裔	-15044
胜利后	-15045
lace	-15046
上市公司	-15047
在乌克兰	-15048
背鳍软条	-15049
臀鳍软条	-15050
为太	-15051
之弟	-15052
多有	-15053
季的	-15054
抗体	-15055
排位	-15056
有毒	-15057
炸毁	-15058
短途	-15059
硬体	-15060
英美	-15061
被打	-15062
钥匙	-15063
提到了	-15064
的质量	-15065
背景下	-15066
苏州市	-15067
观测到	-15068
三十一年	-15069
恐怖主义	-15070
泽连斯基	-15071
艺术博物馆	-15072
NS	-15073
▁汤	-15074
入住	-15075
取向	-15076
川市	-15077
年再	-15078
旧的	-15079
激战	-15080
百余	-15081
监护	-15082
等处	-15083
芜湖	-15084
蔷薇	-15085
追逐	-15086
颠覆	-15087
一带的	-15088
代表了	-15089
其中以	-15090
将他们	-15091
所有人	-15092
日通车	-15093
是非常	-15094
的主场	-15095
的小说	-15096
缘关系	-15097
这些人	-15098
这里的	-15099
可以看到	-15100
是法国上	-15101
的支持率	-15102
传感	-15103
名声	-15104
后以	-15105
圣人	-15106
希姆	-15107
杰夫	-15108
此曲	-15109
索伦	-15110
莫拉	-15111
音频	-15112
农产品	-15113
所有权	-15114
的压力	-15115
第五届	-15116
篮球队	-15117
重大的	-15118
▁Inc	-15119
与中	-15120
之位	-15121
休斯	-15122
做到	-15123
去年	-15124
及大	-15125
取了	-15126
名次	-15127
米德	-15128
装载	-15129
论点	-15130
负于	-15131
附有	-15132
黎加	-15133
黑森	-15134
▁苏联	-15135
不适合	-15136
名成员	-15137
指挥使	-15138
等其他	-15139
中华职棒	-15140
当地时间	-15141
中级人民法院	-15142
VE	-15143
▁铁	-15144
叛变	-15145
可与	-15146
多重	-15147
岐阜	-15148
广电	-15149
托尼	-15150
整顿	-15151
杀青	-15152
萧条	-15153
调用	-15154
鲜花	-15155
鳞片	-15156
oud	-15157
年进行	-15158
开幕式	-15159
组织和	-15160
三十七年	-15161
军节度使	-15162
市镇面积为	-15163
CM	-15164
上旬	-15165
东征	-15166
之变	-15167
借口	-15168
兴盛	-15169
北门	-15170
哀悼	-15171
排斥	-15172
文人	-15173
时曾	-15174
昏迷	-15175
被控	-15176
轮流	-15177
马耶	-15178
黑帮	-15179
Min	-15180
▁环境	-15181
▁这一	-15182
在不同	-15183
并使用	-15184
当时在	-15185
是一些	-15186
的选择	-15187
索姆省	-15188
人口为人	-15189
两边	-15190
仇恨	-15191
但对	-15192
套件	-15193
尾部	-15194
日才	-15195
▁参赛	-15196
及相关	-15197
各自的	-15198
同年五月	-15199
美国国会	-15200
一行	-15201
东非	-15202
之余	-15203
内燃	-15204
则与	-15205
吸烟	-15206
国大	-15207
由中	-15208
的黄	-15209
纬度	-15210
顶尖	-15211
▁反应	-15212
不同意	-15213
为韩国	-15214
支持下	-15215
杂志的	-15216
红色的	-15217
驻扎在	-15218
三十二年	-15219
ional	-15220
一国	-15221
升上	-15222
古尔	-15223
填补	-15224
散骑	-15225
新世	-15226
杂货	-15227
焚烧	-15228
艾森	-15229
说出	-15230
emp	-15231
卡塔尔	-15232
名单中	-15233
护卫舰	-15234
裔美国	-15235
rain	-15236
国家元首	-15237
弗吉尼亚	-15238
车人次为	-15239
这个问题	-15240
▁Games	-15241
Instagram	-15242
与会	-15243
临界	-15244
产于	-15245
介质	-15246
南美	-15247
和电	-15248
实例	-15249
常设	-15250
校址	-15251
满族	-15252
萨里	-15253
话剧	-15254
轴心	-15255
骨干	-15256
aya	-15257
▁公路	-15258
奥恩省	-15259
康斯坦	-15260
有大量	-15261
的专辑	-15262
的起源	-15263
衍生物	-15264
cess	-15265
ival	-15266
值得一提	-15267
自然科学	-15268
分布于亚洲	-15269
社会民主党	-15270
FS	-15271
UP	-15272
八一	-15273
孙权	-15274
拼写	-15275
疑问	-15276
盐水	-15277
语义	-15278
陪伴	-15279
IBM	-15280
▁清朝	-15281
亚运会	-15282
工程系	-15283
母公司	-15284
的合作	-15285
的表演	-15286
▁Kong	-15287
人口密度为	-15288
Richard	-15289
NE	-15290
三振	-15291
三段	-15292
与西	-15293
也让	-15294
会场	-15295
博客	-15296
可可	-15297
姿势	-15298
引致	-15299
方索	-15300
环礁	-15301
的安	-15302
纵向	-15303
表格	-15304
金球	-15305
Mel	-15306
基地的	-15307
安装了	-15308
年再次	-15309
海南省	-15310
的法国	-15311
取而代之	-15312
富士电视台	-15313
ré	-15314
克伦	-15315
其主	-15316
动议	-15317
小岛	-15318
德塞	-15319
救助	-15320
昂贵	-15321
科西	-15322
主人公	-15323
政策的	-15324
的胜利	-15325
肯尼亚	-15326
行为的	-15327
境内共有各类	-15328
下车	-15329
华文	-15330
民权	-15331
波的	-15332
落地	-15333
警戒	-15334
驾崩	-15335
▁大学	-15336
巴斯克	-15337
留下了	-15338
留学生	-15339
Jean	-15340
短期大学	-15341
哥伦比亚大学	-15342
三郎	-15343
保有	-15344
大海	-15345
察觉	-15346
开关	-15347
无畏	-15348
热的	-15349
道中	-15350
采样	-15351
饥饿	-15352
TBS	-15353
原声带	-15354
太阳的	-15355
奖得主	-15356
日首播	-15357
模标本	-15358
的动作	-15359
wood	-15360
常住人口	-15361
无人车站	-15362
UE	-15363
〈〉	-15364
仍旧	-15365
优良	-15366
全权	-15367
史前	-15368
将原	-15369
征讨	-15370
武德	-15371
波长	-15372
青睐	-15373
顶端	-15374
ces	-15375
原本是	-15376
方济各	-15377
沉积物	-15378
广为人知	-15379
▁另一方面	-15380
Cy	-15381
上杉	-15382
改属	-15383
沃斯	-15384
车上	-15385
退化	-15386
长寿	-15387
静态	-15388
颈部	-15389
INE	-15390
▁OS	-15391
严格的	-15392
他们对	-15393
伊斯坦	-15394
厅厅长	-15395
守门员	-15396
爱丽丝	-15397
生存于	-15398
列宁格勒	-15399
州际公路	-15400
是西班牙卡斯蒂利亚	-15401
▁半	-15402
中超	-15403
堆积	-15404
姑娘	-15405
宣判	-15406
密特	-15407
本年	-15408
火炬	-15409
相差	-15410
蒂冈	-15411
调至	-15412
起事	-15413
锁定	-15414
Ben	-15415
ima	-15416
▁到了	-15417
▁制备	-15418
中首次	-15419
作品有	-15420
有效地	-15421
站之间	-15422
第四届	-15423
非正式	-15424
尼加拉瓜	-15425
日治初期	-15426
号线的地铁车站	-15427
一下	-15428
丽莎	-15429
傀儡	-15430
出为	-15431
南岸	-15432
夏尔	-15433
木制	-15434
缪尔	-15435
脚类	-15436
赌场	-15437
附设	-15438
▁而在	-15439
应该是	-15440
探险家	-15441
搬迁至	-15442
的产品	-15443
皮尔斯	-15444
移交给	-15445
莱比锡	-15446
车辆段	-15447
enry	-15448
电影公司	-15449
不必	-15450
两届	-15451
举报	-15452
公馆	-15453
南亚	-15454
摄像	-15455
早前	-15456
联车	-15457
避开	-15458
ova	-15459
劳动力	-15460
居住于	-15461
展开了	-15462
开发了	-15463
的描述	-15464
的最佳	-15465
赛艇运动员	-15466
CL	-15467
全称	-15468
南阳	-15469
向下	-15470
奉献	-15471
山水	-15472
投奔	-15473
排在	-15474
文集	-15475
是因	-15476
次长	-15477
该州	-15478
过敏	-15479
长女	-15480
▁下辖	-15481
年出任	-15482
甚至在	-15483
蒙大拿	-15484
该物种	-15485
chem	-15486
年成立的	-15487
教育学院	-15488
现效力于	-15489
▁星	-15490
三家	-15491
世嘉	-15492
会用	-15493
喷泉	-15494
将士	-15495
景泰	-15496
桥头	-15497
沙巴	-15498
租金	-15499
稻田	-15500
艾莉	-15501
也随之	-15502
作出了	-15503
先进的	-15504
尼克松	-15505
并宣布	-15506
深水埗	-15507
的选票	-15508
第十九	-15509
阿道夫	-15510
迄今为止	-15511
首席执行官	-15512
▁赤	-15513
一门	-15514
中校	-15515
关怀	-15516
刚好	-15517
千代	-15518
卡塔	-15519
原版	-15520
大怒	-15521
娃娃	-15522
所为	-15523
过境	-15524
连环	-15525
阪神	-15526
uff	-15527
▁乡道	-15528
有以下	-15529
第六届	-15530
细胞的	-15531
这件事	-15532
颁奖礼	-15533
领导下	-15534
NASA	-15535
空中照片	-15536
书画	-15537
光碟	-15538
时事	-15539
相交	-15540
罗汉	-15541
财物	-15542
协助下	-15543
江泽民	-15544
育有一	-15545
音乐人	-15546
▁本列表	-15547
宗教信仰	-15548
▁细	-15549
三维	-15550
修士	-15551
光度	-15552
司空	-15553
山南	-15554
性与	-15555
茨堡	-15556
调度	-15557
龙门	-15558
以防止	-15559
司令官	-15560
年年底	-15561
斯巴达	-15562
是波兰	-15563
条规定	-15564
爱知县	-15565
给出了	-15566
所产生的	-15567
多尔多涅省	-15568
ла	-15569
乘降	-15570
剥削	-15571
命题	-15572
毒素	-15573
至关	-15574
药房	-15575
衙门	-15576
观的	-15577
起始	-15578
转往	-15579
这在	-15580
随意	-15581
马术	-15582
lob	-15583
与经济	-15584
伯明翰	-15585
家协会	-15586
巴士站	-15587
很好的	-15588
特里克	-15589
rick	-15590
商业银行	-15591
百科全书	-15592
金牌得主	-15593
中华人民共和国成立后	-15594
单个	-15595
发车	-15596
另类	-15597
器材	-15598
教务	-15599
机能	-15600
王妃	-15601
玛斯	-15602
病原	-15603
赞誉	-15604
车臣	-15605
鲁迅	-15606
二十八	-15607
今日的	-15608
却没有	-15609
新竹县	-15610
的建设	-15611
统治的	-15612
淡水流域	-15613
世界卫生组织	-15614
政治协商会议	-15615
侯爵	-15616
八世	-15617
图拉	-15618
打印	-15619
曾用	-15620
点燃	-15621
硫化	-15622
说他	-15623
den	-15624
▁通常	-15625
大约在	-15626
第十七	-15627
足协杯	-15628
这样做	-15629
ideo	-15630
▁Ltd	-15631
普遍认为	-15632
的大规模	-15633
铜牌得主	-15634
other	-15635
人民委员会	-15636
是乌克兰西部	-15637
获得一枚铜牌	-15638
以自	-15639
八号	-15640
则将	-15641
太大	-15642
河西	-15643
潜入	-15644
的超	-15645
考特	-15646
胸部	-15647
蜂鸟	-15648
音译	-15649
梵蒂冈	-15650
死亡率	-15651
的另一	-15652
表示为	-15653
配备了	-15654
马尼拉	-15655
ball	-15656
ents	-15657
伊泽尔省	-15658
年更名为	-15659
科会试第二百	-15660
会是	-15661
兵马	-15662
县委	-15663
声望	-15664
多德	-15665
年曾	-15666
推导	-15667
日成	-15668
滋病	-15669
藏于	-15670
蜗牛	-15671
鲜明	-15672
ONE	-15673
▁别名	-15674
哈里发	-15675
并指出	-15676
自卫队	-15677
▁High	-15678
pa	-15679
中美	-15680
冶金	-15681
南通	-15682
帐号	-15683
接获	-15684
特利	-15685
乃木坂	-15686
因为其	-15687
的一般	-15688
的意义	-15689
管理员	-15690
该系列	-15691
GE	-15692
▁瑞	-15693
临海	-15694
传言	-15695
吉米	-15696
周日	-15697
增多	-15698
德比	-15699
无可	-15700
时起	-15701
汉军	-15702
渲染	-15703
画像	-15704
隆头	-15705
在所有	-15706
并不能	-15707
张家口	-15708
时间表	-15709
沃尔特	-15710
涵盖了	-15711
球队以	-15712
百分之	-15713
的生物	-15714
辖下的	-15715
选举区	-15716
ович	-15717
为了避免	-15718
kg	-15719
од	-15720
化身	-15721
忘记	-15722
是继	-15723
流形	-15724
里安	-15725
KBS	-15726
vel	-15727
▁进入	-15728
后改为	-15729
斯托克	-15730
的原型	-15731
转换为	-15732
复旦大学	-15733
最常见的	-15734
战争结束后	-15735
香港中文大学	-15736
中共中央政治局	-15737
交所	-15738
振动	-15739
文教	-15740
歌声	-15741
游览	-15742
灌丛	-15743
牌坊	-15744
菲斯	-15745
谈论	-15746
门户	-15747
顿的	-15748
饶舌	-15749
高卢	-15750
依赖于	-15751
分钟的	-15752
前总统	-15753
指定的	-15754
起来的	-15755
共产国际	-15756
获得冠军	-15757
还有一些	-15758
▁亚历山大	-15759
车站编号为	-15760
George	-15761
▁异	-15762
公信	-15763
升班	-15764
反共	-15765
基的	-15766
捕鱼	-15767
改动	-15768
深的	-15769
西夏	-15770
鲤鱼	-15771
Luc	-15772
函数的	-15773
并继续	-15774
福州市	-15775
▁Mod	-15776
死亡人数	-15777
将其降格为	-15778
位于法国诺曼底大区	-15779
NG	-15780
梅花	-15781
河中	-15782
潮汐	-15783
画廊	-15784
管治	-15785
英宗	-15786
▁mu	-15787
与法国	-15788
已灭绝	-15789
教育的	-15790
的一级	-15791
相结合	-15792
还设有	-15793
马歇尔	-15794
主要来自	-15795
印第安纳	-15796
布宜诺斯	-15797
背鳍硬棘	-15798
越来越多	-15799
▁Hall	-15800
不肯	-15801
中小	-15802
交代	-15803
原生	-15804
和非	-15805
山姆	-15806
才有	-15807
承袭	-15808
极力	-15809
热爱	-15810
英冠	-15811
街市	-15812
转动	-15813
众多的	-15814
到美国	-15815
发挥了	-15816
哈里森	-15817
大约是	-15818
杰出的	-15819
的身体	-15820
马克西	-15821
事务由其	-15822
日托米尔	-15823
一把	-15824
仙台	-15825
南门	-15826
发作	-15827
在各	-15828
奋斗	-15829
开心	-15830
手续	-15831
时光	-15832
朝圣	-15833
议事	-15834
院的	-15835
ape	-15836
▁截止	-15837
即位后	-15838
奥斯汀	-15839
或以上	-15840
的首席	-15841
第三方	-15842
是中国的特有植物	-15843
pm	-15844
▁威	-15845
▁香	-15846
于其	-15847
亲戚	-15848
人身	-15849
仙奴	-15850
停刊	-15851
先天	-15852
光电	-15853
向后	-15854
扎克	-15855
最强	-15856
SBS	-15857
▁Ma	-15858
▁命名	-15859
元素的	-15860
改称为	-15861
的演员	-15862
原住民族	-15863
可以用来	-15864
服务中心	-15865
足球比赛	-15866
位于中国广东省	-15867
之城	-15868
二度	-15869
大麻	-15870
实地	-15871
宫中	-15872
小田	-15873
就以	-15874
尼卡	-15875
想象	-15876
手的	-15877
晚报	-15878
症候	-15879
稍微	-15880
选址	-15881
都将	-15882
青训	-15883
顶峰	-15884
黑海	-15885
一连串	-15886
人们对	-15887
共同体	-15888
向东南	-15889
年建立	-15890
的物种	-15891
运营商	-15892
▁Bro	-15893
▁新加坡	-15894
集团公司	-15895
▁余	-15896
东门	-15897
和二	-15898
廉价	-15899
文史	-15900
新娘	-15901
村级	-15902
比上	-15903
界限	-15904
调往	-15905
▁自由	-15906
中国驻	-15907
必须要	-15908
组联赛	-15909
被判处	-15910
muna	-15911
uber	-15912
常务委员	-15913
ission	-15914
CV	-15915
HS	-15916
TF	-15917
▁尚	-15918
与妻	-15919
伊达	-15920
但当	-15921
偏东	-15922
元代	-15923
反响	-15924
城巴	-15925
妖怪	-15926
抗原	-15927
的低	-15928
试镜	-15929
金字	-15930
金陵	-15931
olo	-15932
ugh	-15933
▁Li	-15934
克拉斯	-15935
新市镇	-15936
构成了	-15937
特有的	-15938
选举产生	-15939
世界各地的	-15940
第十三届全国人民代表大会	-15941
人中	-15942
凯莉	-15943
容积	-15944
尊敬	-15945
抄袭	-15946
水和	-15947
相位	-15948
线条	-15949
自发	-15950
贵阳	-15951
itz	-15952
▁Up	-15953
也包括	-15954
数量为	-15955
是一场	-15956
泰米尔	-15957
的欧洲	-15958
选区的	-15959
音乐厅	-15960
▁Rep	-15961
德克萨斯	-15962
文学作品	-15963
格拉斯哥	-15964
卡尔瓦多斯省	-15965
法兰西岛大区	-15966
位于法国上法兰西大区	-15967
一件	-15968
一队	-15969
停用	-15970
暱称	-15971
法伦	-15972
葫芦	-15973
被害	-15974
谣言	-15975
都与	-15976
ict	-15977
iff	-15978
土库曼	-15979
学术界	-15980
人口变化	-15981
开工建设	-15982
Peter	-15983
DM	-15984
哈密	-15985
士革	-15986
处方	-15987
室外	-15988
巨额	-15989
希夫	-15990
悲伤	-15991
欧冠	-15992
步道	-15993
秋田	-15994
自传	-15995
赌博	-15996
防暴	-15997
rey	-15998
反革命	-15999
团团长	-16000
常见于	-16001
大学学习	-16002
总司令部	-16003
成吉思汗	-16004
棒球选手	-16005
第二阶段	-16006
篮球联赛	-16007
▁云	-16008
人以	-16009
何塞	-16010
作了	-16011
化名	-16012
基座	-16013
孟买	-16014
孤独	-16015
尔克	-16016
并让	-16017
微信	-16018
成效	-16019
控告	-16020
uel	-16021
use	-16022
不应该	-16023
佛罗伦	-16024
全国性	-16025
土地的	-16026
圣约翰	-16027
州知州	-16028
工业部	-16029
建制派	-16030
总工会	-16031
独立后	-16032
计划中	-16033
马拉雅	-16034
一般来说	-16035
在俄罗斯	-16036
政府官员	-16037
日本帝国	-16038
最大水深	-16039
苏门答腊	-16040
牵引电动机	-16041
县的一个人口普查指定地区	-16042
Ga	-16043
伊藤	-16044
位处	-16045
北越	-16046
卑诗	-16047
定向	-16048
山和	-16049
市郊	-16050
投靠	-16051
拉罕	-16052
水坝	-16053
生还	-16054
称自	-16055
纵贯	-16056
结为	-16057
苯基	-16058
较长	-16059
雷恩	-16060
▁部分	-16061
开放式	-16062
月发行	-16063
的评论	-16064
组建了	-16065
是加拿大	-16066
▁Limited	-16067
▁第二次世界大战	-16068
为中国的特有植物	-16069
介面	-16070
六名	-16071
她为	-16072
库容	-16073
新南	-16074
汉书	-16075
LED	-16076
lav	-16077
▁歌曲	-16078
资料库	-16079
美国空军	-16080
阿尔伯特	-16081
博士生导师	-16082
栖息在底中层水域	-16083
LL	-16084
▁甘	-16085
▁男	-16086
之妻	-16087
墓碑	-16088
实的	-16089
座谈	-16090
有害	-16091
浮游	-16092
田村	-16093
莆田	-16094
行事	-16095
距今	-16096
与发展	-16097
扩展到	-16098
月完成	-16099
认为其	-16100
集中于	-16101
成为一名	-16102
▁Associ	-16103
省级文物保护单位	-16104
出线	-16105
开战	-16106
汉中	-16107
滚石	-16108
火药	-16109
的士	-16110
级数	-16111
维耶	-16112
缺失	-16113
罗什	-16114
lam	-16115
▁La	-16116
一级赛	-16117
即使在	-16118
的主角	-16119
空间的	-16120
首单曲	-16121
Star	-16122
▁not	-16123
▁出入口	-16124
亿立方米	-16125
ative	-16126
寺卿	-16127
新年	-16128
海防	-16129
百大	-16130
▁演出	-16131
号线的	-16132
同时还	-16133
开始的	-16134
索马里	-16135
苏黎世	-16136
院院士	-16137
但是由于	-16138
周边地区	-16139
巴尔的摩	-16140
比利牛斯	-16141
是中华民国	-16142
wo	-16143
▁粗	-16144
为单	-16145
北道	-16146
在两	-16147
地段	-16148
外型	-16149
女优	-16150
峰会	-16151
此案	-16152
莫哈	-16153
邻国	-16154
重整	-16155
铜像	-16156
陈氏	-16157
靠著	-16158
具体的	-16159
在电影	-16160
安全性	-16161
宪兵队	-16162
市辖区	-16163
性气候	-16164
持续了	-16165
河地区	-16166
看到了	-16167
中国传统	-16168
初级中学	-16169
国会选区	-16170
开始使用	-16171
第一阶段	-16172
历史博物馆	-16173
Ha	-16174
Te	-16175
bl	-16176
ет	-16177
三省	-16178
他把	-16179
会让	-16180
出行	-16181
却因	-16182
和女	-16183
和安	-16184
强硬	-16185
港币	-16186
狱中	-16187
维京	-16188
荔枝	-16189
诽谤	-16190
身心	-16191
逃出	-16192
霉素	-16193
领取	-16194
ext	-16195
ody	-16196
win	-16197
▁en	-16198
在社会	-16199
自由的	-16200
lect	-16201
▁III	-16202
▁故事简介	-16203
行政区划单位	-16204
为辐鳍鱼纲鲤形目	-16205
与自	-16206
但并	-16207
凯利	-16208
功绩	-16209
打压	-16210
特人	-16211
男双	-16212
疗养	-16213
石门	-16214
纳多	-16215
萨利	-16216
▁技术	-16217
在部分	-16218
政府于	-16219
月宣布	-16220
环境的	-16221
的妹妹	-16222
的高度	-16223
马哈迪	-16224
漫画作品	-16225
弗吉尼亚州	-16226
自然保护区	-16227
OP	-16228
▁丰	-16229
▁菲	-16230
亦不	-16231
侵害	-16232
后将	-16233
均已	-16234
天竺	-16235
客人	-16236
手臂	-16237
收敛	-16238
显现	-16239
槟城	-16240
死伤	-16241
沃德	-16242
空缺	-16243
美尔	-16244
警官	-16245
该次	-16246
误解	-16247
调动	-16248
都由	-16249
地铁站	-16250
巴斯蒂	-16251
的第四	-16252
自由泳	-16253
匈牙利语	-16254
西方国家	-16255
美洲原住民	-16256
▁Techn	-16257
TW	-16258
ks	-16259
且在	-16260
亚述	-16261
侏罗	-16262
划艇	-16263
卢斯	-16264
县令	-16265
战乱	-16266
手上	-16267
批发	-16268
是马	-16269
极具	-16270
热内	-16271
离队	-16272
突发	-16273
算是	-16274
转至	-16275
陕甘	-16276
一书中	-16277
他的妻	-16278
可以由	-16279
地方的	-16280
带领下	-16281
总投资	-16282
持有的	-16283
日播出	-16284
检察长	-16285
的看法	-16286
波希米亚	-16287
是俄罗斯联邦	-16288
兵备	-16289
动量	-16290
圆顶	-16291
恐吓	-16292
搞笑	-16293
特快	-16294
皮亚	-16295
MBC	-16296
可以让	-16297
号公路	-16298
和香港	-16299
沈阳市	-16300
退休后	-16301
▁第二次	-16302
平方公尺	-16303
▁超	-16304
下有	-16305
业的	-16306
为准	-16307
信念	-16308
八大	-16309
前列	-16310
墓园	-16311
民调	-16312
河镇	-16313
的法	-16314
看似	-16315
称谓	-16316
航道	-16317
革新	-16318
ird	-16319
led	-16320
ten	-16321
台南县	-16322
史蒂夫	-16323
所以在	-16324
时间里	-16325
ough	-16326
ather	-16327
北部的村庄	-16328
上涨	-16329
东端	-16330
广受	-16331
生在	-16332
花序	-16333
ady	-16334
吸引力	-16335
提升至	-16336
摩尔质量	-16337
首府设于	-16338
年时的人口为	-16339
亚那	-16340
优质	-16341
华丽	-16342
德雷	-16343
无视	-16344
月与	-16345
李宗	-16346
涌入	-16347
牲畜	-16348
精卫	-16349
赫特	-16350
麻醉	-16351
龙骨	-16352
单位的	-16353
受影响	-16354
居住的	-16355
植物的	-16356
的乡份	-16357
糖尿病	-16358
级分类	-16359
统一的	-16360
梅克伦堡	-16361
湖南卫视	-16362
aurus	-16363
是位于日本	-16364
是罗马尼亚的乡份	-16365
сь	-16366
住民	-16367
刘氏	-16368
南县	-16369
国产	-16370
好处	-16371
开皇	-16372
抱怨	-16373
时许	-16374
架空	-16375
桌面	-16376
点数	-16377
纳瓦	-16378
退位	-16379
阅兵	-16380
螺旋桨	-16381
被派往	-16382
不久之后	-16383
交通事故	-16384
弗朗西斯	-16385
事务由其所属的	-16386
iT	-16387
仲裁	-16388
古斯	-16389
吉姆	-16390
塔楼	-16391
增建	-16392
整流	-16393
校尉	-16394
民选	-16395
进食	-16396
问世	-16397
阵列	-16398
阶梯	-16399
▁生涯	-16400
古埃及	-16401
总指挥	-16402
母亲的	-16403
流域为	-16404
第七届	-16405
该法案	-16406
轻小说	-16407
之手	-16408
九江	-16409
亲密	-16410
内华	-16411
凝聚	-16412
密尔	-16413
弗尔	-16414
死因	-16415
治所	-16416
泄漏	-16417
的陈	-16418
神祇	-16419
立案	-16420
立的	-16421
考克	-16422
起降	-16423
选用	-16424
阴道	-16425
▁Pr	-16426
不办理	-16427
与国际	-16428
有多种	-16429
索恩省	-16430
练马师	-16431
Love	-16432
由该道路	-16433
卢瓦尔河谷	-16434
上也	-16435
上去	-16436
上架	-16437
中是	-16438
仅能	-16439
同伴	-16440
太监	-16441
少林	-16442
布利	-16443
干流	-16444
必定	-16445
施压	-16446
武藏	-16447
活化	-16448
茶叶	-16449
蜥蜴	-16450
试点	-16451
车款	-16452
One	-16453
cis	-16454
不愿意	-16455
组织了	-16456
今河南省	-16457
在接下来的	-16458
网球运动员	-16459
IO	-16460
后与	-16461
失控	-16462
对照	-16463
才华	-16464
易于	-16465
索引	-16466
而于	-16467
腐蚀	-16468
oma	-16469
与德国	-16470
并加入	-16471
标准化	-16472
汪精卫	-16473
第聂伯	-16474
苗栗县	-16475
被拆除	-16476
ines	-16477
▁电视动画	-16478
▁紫	-16479
助教	-16480
半数	-16481
华视	-16482
卢卡	-16483
实数	-16484
将是	-16485
散射	-16486
敦煌	-16487
是要	-16488
机体	-16489
机翼	-16490
来回	-16491
每位	-16492
肝脏	-16493
舞者	-16494
货柜	-16495
Pat	-16496
web	-16497
副处长	-16498
它们在	-16499
成为该	-16500
权力的	-16501
植物园	-16502
认识了	-16503
赛马会	-16504
郑州市	-16505
bach	-16506
电影导演	-16507
的帮助下	-16508
的支持下	-16509
蒙特利尔	-16510
BB	-16511
▁z	-16512
东道	-16513
寺的	-16514
悼念	-16515
攻城	-16516
日方	-16517
晋身	-16518
测得	-16519
艰难	-16520
莫夫	-16521
包括有	-16522
卢西亚	-16523
发射器	-16524
大约为	-16525
左支流	-16526
汉武帝	-16527
主要从事	-16528
大正九年	-16529
苹果公司	-16530
Steam	-16531
▁台	-16532
万的	-16533
万里	-16534
与高	-16535
凯旋	-16536
剧烈	-16537
地在	-16538
处境	-16539
并可	-16540
而将	-16541
陵园	-16542
预科	-16543
大洋洲	-16544
悠久的	-16545
的指挥	-16546
禾本科	-16547
比赛成绩	-16548
玩家可以	-16549
阿尔卑斯省	-16550
勃兰	-16551
历来	-16552
塞内	-16553
学徒	-16554
平地	-16555
按钮	-16556
春天	-16557
水池	-16558
经文	-16559
肯特	-16560
莉莉	-16561
辉煌	-16562
通关	-16563
长史	-16564
雨林	-16565
和技术	-16566
慈侍下	-16567
抑制剂	-16568
显示器	-16569
理论的	-16570
都必须	-16571
urch	-16572
同性婚姻	-16573
摩尔多瓦	-16574
人口变化图示	-16575
FO	-16576
一楼	-16577
不丹	-16578
仆射	-16579
伦巴	-16580
反恐	-16581
受过	-16582
场均	-16583
巴尼	-16584
抄本	-16585
每组	-16586
深色	-16587
纳特	-16588
藻类	-16589
镇海	-16590
▁亚洲	-16591
▁公司	-16592
▁航空	-16593
亚足联	-16594
的动画	-16595
rown	-16596
奥古斯特	-16597
尔斯泰因	-16598
▁下辖以下	-16599
党委副书记	-16600
个村	-16601
令其	-16602
刘邦	-16603
判刑	-16604
奈尔	-16605
封信	-16606
悬崖	-16607
政局	-16608
救灾	-16609
毁坏	-16610
瑞斯	-16611
追究	-16612
Sta	-16613
同盟国	-16614
哥斯达	-16615
有任何	-16616
此时的	-16617
香港人	-16618
Dist	-16619
▁der	-16620
伊莉莎白	-16621
和俄罗斯	-16622
属于温带	-16623
认为这是	-16624
法国平均水平	-16625
FL	-16626
不为	-16627
与马	-16628
内核	-16629
和北	-16630
哈斯	-16631
帐户	-16632
店铺	-16633
有罪	-16634
渔船	-16635
碑文	-16636
票口	-16637
罗克	-16638
美学	-16639
耗尽	-16640
追杀	-16641
铁线	-16642
队以	-16643
题目	-16644
▁ра	-16645
人物的	-16646
再一次	-16647
唐纳德	-16648
夏洛特	-16649
的动物	-16650
的学校	-16651
▁App	-16652
公交线路	-16653
路交叉口	-16654
阿拉伯人	-16655
包括以下属	-16656
▁Island	-16657
▁College	-16658
三一	-16659
个乡	-16660
二维	-16661
余下	-16662
内置	-16663
史克	-16664
拉尼	-16665
渡边	-16666
牵连	-16667
舰载	-16668
词源	-16669
诺瓦	-16670
魔女	-16671
台湾人	-16672
斯特里	-16673
车站的	-16674
▁com	-16675
东北部内	-16676
这一时期	-16677
丢失	-16678
乔木	-16679
八角	-16680
发声	-16681
庆长	-16682
精准	-16683
结核	-16684
署理	-16685
蒸气	-16686
该报	-16687
赠送	-16688
轮船	-16689
▁纪念	-16690
出版商	-16691
剧情片	-16692
县境内	-16693
呈现出	-16694
工作组	-16695
年轻时	-16696
指导下	-16697
服务于	-16698
比其他	-16699
里斯本	-16700
itch	-16701
超级英雄	-16702
gr	-16703
个县	-16704
卢甘	-16705
名和	-16706
太仆	-16707
奉祀	-16708
应力	-16709
接续	-16710
推力	-16711
的口	-16712
红白	-16713
费利	-16714
并取得	-16715
恩斯特	-16716
等多种	-16717
严重破坏	-16718
field	-16719
河的左支流	-16720
严谨	-16721
佐夫	-16722
前称	-16723
怎样	-16724
戈斯	-16725
戴尔	-16726
是种	-16727
柠檬	-16728
森在	-16729
犯人	-16730
邮轮	-16731
Mod	-16732
▁语言	-16733
塔利班	-16734
最初由	-16735
格罗夫	-16736
短暂的	-16737
贝尔福	-16738
购买了	-16739
这座城市	-16740
众议院议员	-16741
▁乐	-16742
为高	-16743
人种	-16744
代什	-16745
再于	-16746
千岁	-16747
抒情	-16748
柏拉	-16749
溪县	-16750
猜想	-16751
紧邻	-16752
西端	-16753
鲜卑	-16754
als	-16755
mar	-16756
便开始	-16757
是越南	-16758
的资格	-16759
突出的	-16760
等海域	-16761
都督府	-16762
burg	-16763
Di	-16764
仅剩	-16765
以大	-16766
优越	-16767
再见	-16768
卡迪	-16769
和东	-16770
尼托	-16771
布赖	-16772
年华	-16773
时机	-16774
有名	-16775
桥镇	-16776
泡沫	-16777
焚毁	-16778
相识	-16779
统战	-16780
考取	-16781
聊天	-16782
谷物	-16783
进站	-16784
NBC	-16785
什叶派	-16786
在苏联	-16787
弗朗西	-16788
当事人	-16789
等领域	-16790
范围为	-16791
斯特拉斯	-16792
新墨西哥	-16793
生态系统	-16794
线的铁路车站	-16795
该省份为法国东北部内	-16796
▁及	-16797
一贯	-16798
会和	-16799
传道	-16800
到期	-16801
台词	-16802
唐山	-16803
姊姊	-16804
岛峰	-16805
开机	-16806
恋情	-16807
承载	-16808
显微	-16809
极高	-16810
气味	-16811
知的	-16812
祝福	-16813
维茨	-16814
警队	-16815
首座	-16816
gen	-16817
▁直到	-16818
修建了	-16819
分别由	-16820
剩余的	-16821
总共有	-16822
派出所	-16823
的感觉	-16824
车路士	-16825
与俄罗斯	-16826
客运专线	-16827
战国时代	-16828
繁忙时间	-16829
滨海塞纳省	-16830
义和	-16831
了她	-16832
堕胎	-16833
大坝	-16834
已不	-16835
斐尔	-16836
止步	-16837
细亚	-16838
胎儿	-16839
腹足	-16840
计时	-16841
达姆	-16842
门前	-16843
▁早在	-16844
书记处	-16845
分钟后	-16846
制度的	-16847
召集人	-16848
国王的	-16849
广播剧	-16850
提升为	-16851
文献中	-16852
第二期	-16853
认为他	-16854
非营利	-16855
革命后	-16856
ones	-16857
也有一些	-16858
塞浦路斯	-16859
建筑风格	-16860
最主要的	-16861
管理学院	-16862
边界地带	-16863
长期以来	-16864
香港电台	-16865
Comuna	-16866
不俗	-16867
为生	-16868
乔丹	-16869
出征	-16870
到处	-16871
又是	-16872
变星	-16873
幕僚	-16874
年版	-16875
无所	-16876
核能	-16877
海事	-16878
深造	-16879
点击	-16880
的北	-16881
通告	-16882
UND	-16883
仅限于	-16884
曾代表	-16885
有些人	-16886
的患者	-16887
阿联酋	-16888
随后于	-16889
isch	-16890
选秀节目	-16891
荷尔斯泰因	-16892
YO	-16893
▁京	-16894
丽鱼	-16895
伏击	-16896
伯利	-16897
便在	-16898
做过	-16899
兹堡	-16900
平静	-16901
应为	-16902
掌权	-16903
推论	-16904
文武	-16905
更早	-16906
榜上	-16907
殊荣	-16908
等多	-16909
落叶	-16910
▁概况	-16911
一共有	-16912
古兰经	-16913
搬到了	-16914
最接近	-16915
波美拉	-16916
的主体	-16917
赞助商	-16918
青年队	-16919
evel	-16920
icus	-16921
▁Jun	-16922
政府部门	-16923
通货膨胀	-16924
万份	-16925
义勇	-16926
叫声	-16927
可被	-16928
史书	-16929
同乡	-16930
异母	-16931
查看	-16932
比的	-16933
觉醒	-16934
走到	-16935
部将	-16936
雷拉	-16937
鹿港	-16938
Lou	-16939
▁创作	-16940
向西南	-16941
性质的	-16942
政府对	-16943
武汉大学	-16944
二段	-16945
令他	-16946
全职	-16947
历年	-16948
增大	-16949
心中	-16950
播音	-16951
最短	-16952
欧拉	-16953
海德	-16954
相距	-16955
纳克	-16956
而对	-16957
苏益	-16958
迎来	-16959
龙潭	-16960
▁登场	-16961
任总统	-16962
伏尔加	-16963
北部省	-16964
本身的	-16965
练习生	-16966
佛罗伦萨	-16967
强烈反对	-16968
架无人机	-16969
锦标赛男	-16970
▁Tour	-16971
▁百	-16972
▁真	-16973
中视	-16974
传授	-16975
体色	-16976
制止	-16977
呼和	-16978
城池	-16979
案中	-16980
横扫	-16981
爱乐	-16982
究竟	-16983
蛋糕	-16984
退赛	-16985
限量	-16986
arn	-16987
lad	-16988
▁第五	-16989
人士的	-16990
平交道	-16991
曾进入	-16992
汉诺威	-16993
的时代	-16994
经济的	-16995
▁外部连结	-16996
中华人民共和国国务院	-16997
一字	-16998
于一	-16999
俘获	-17000
医护	-17001
因与	-17002
存款	-17003
普选	-17004
武侠	-17005
自制	-17006
诛杀	-17007
鸟的	-17008
Ast	-17009
▁科尔	-17010
在这次	-17011
并成功	-17012
激烈的	-17013
Team	-17014
▁Act	-17015
三十三年	-17016
冰原岛峰	-17017
和加拿大	-17018
政府组织	-17019
是一款由	-17020
苏维埃社会主义共和国	-17021
Su	-17022
▁董	-17023
内在	-17024
印有	-17025
原文	-17026
又于	-17027
延误	-17028
战地	-17029
明亮	-17030
明德	-17031
波及	-17032
王世	-17033
瓦纳	-17034
调和	-17035
贝特	-17036
起火	-17037
道士	-17038
酷刑	-17039
香槟	-17040
NGC	-17041
军队在	-17042
变更为	-17043
才得以	-17044
结识了	-17045
雅各布	-17046
ures	-17047
值得注意的是	-17048
▁本科包括以下属	-17049
Bo	-17050
伯勒	-17051
但与	-17052
区及	-17053
厂的	-17054
孩童	-17055
援军	-17056
案发	-17057
民谣	-17058
的字	-17059
素材	-17060
起伏	-17061
闭幕	-17062
ami	-17063
战争后	-17064
排行第	-17065
最初是	-17066
氢氧化	-17067
秘书处	-17068
▁Mor	-17069
▁第一次	-17070
建成通车	-17071
羽毛球运动员	-17072
的一个铁路车站	-17073
▁蒋	-17074
呼应	-17075
固醇	-17076
地板	-17077
宗的	-17078
已是	-17079
无名	-17080
明军	-17081
极少	-17082
次要	-17083
瓦特	-17084
载具	-17085
造像	-17086
Viu	-17087
▁sc	-17088
▁保罗	-17089
▁奥尔	-17090
佩德罗	-17091
发动了	-17092
只能在	-17093
年度的	-17094
最高峰	-17095
的后代	-17096
问题上	-17097
▁大多数	-17098
世纪中期	-17099
作业系统	-17100
意大利语	-17101
▁朗	-17102
刊载	-17103
卷风	-17104
山中	-17105
汇合	-17106
沦为	-17107
洗手	-17108
濒临	-17109
金森	-17110
▁康熙	-17111
▁性质	-17112
了一条	-17113
军分区	-17114
月上旬	-17115
通常由	-17116
ales	-17117
黄金时段	-17118
联邦众议员	-17119
角色扮演游戏	-17120
个区	-17121
刺客	-17122
功夫	-17123
喜好	-17124
基底	-17125
安迪	-17126
左手	-17127
扁平	-17128
法治	-17129
漳州	-17130
萨姆	-17131
计量	-17132
迪纳	-17133
陛下	-17134
风貌	-17135
在广州	-17136
的正式	-17137
经济部	-17138
胡志明	-17139
该专辑	-17140
预计于	-17141
单打冠军	-17142
厄瓜多尔	-17143
安大略省	-17144
艺术中心	-17145
范围包括	-17146
宾夕法尼亚	-17147
▁土	-17148
▁赖	-17149
二个	-17150
全食	-17151
叱咤	-17152
天赋	-17153
庭院	-17154
总务	-17155
新店	-17156
时半	-17157
李世	-17158
沙伯	-17159
海豚	-17160
球的	-17161
私家	-17162
约会	-17163
若瑟	-17164
Sir	-17165
iki	-17166
公司和	-17167
有一天	-17168
等多个	-17169
而其他	-17170
▁und	-17171
卫冕冠军	-17172
可以分为	-17173
中央研究院	-17174
选举委员会	-17175
ga	-17176
万个	-17177
不时	-17178
不符	-17179
两队	-17180
千禧	-17181
听证	-17182
它还	-17183
患病	-17184
接入	-17185
水产	-17186
港湾	-17187
特效	-17188
葵涌	-17189
辖下	-17190
逃犯	-17191
门槛	-17192
预约	-17193
ABC	-17194
▁轶事	-17195
主席团	-17196
天水围	-17197
座的一	-17198
撒哈拉	-17199
日晚间	-17200
约讷省	-17201
缅因州	-17202
联络线	-17203
Jack	-17204
▁Des	-17205
正式成为	-17206
所辖的一个村	-17207
伊本	-17208
停滞	-17209
利马	-17210
大业	-17211
大仙	-17212
报废	-17213
李鸿	-17214
杜马	-17215
派别	-17216
甚么	-17217
禁忌	-17218
给自	-17219
裁撤	-17220
言语	-17221
赞同	-17222
通商	-17223
除去	-17224
ona	-17225
▁Bo	-17226
企业的	-17227
片尾曲	-17228
第三位	-17229
第二年	-17230
管理处	-17231
主要负责	-17232
唯一一个	-17233
种族灭绝	-17234
重要的是	-17235
科学院院士	-17236
是德国的河流	-17237
▁劳	-17238
亚拉	-17239
奠定	-17240
奥拉	-17241
尘埃	-17242
白话	-17243
血清	-17244
轿车	-17245
造价	-17246
公安部	-17247
农作物	-17248
努埃尔	-17249
市议员	-17250
新闻台	-17251
Phil	-17252
ison	-17253
为新市镇	-17254
电影学院	-17255
神职人员	-17256
银牌得主	-17257
▁参考资料	-17258
工作委员会	-17259
▁公	-17260
上盖	-17261
东吴	-17262
即今	-17263
后就	-17264
后转	-17265
尼茨	-17266
想起	-17267
教皇	-17268
斑纹	-17269
柯本	-17270
水区	-17271
狭义	-17272
该曲	-17273
马修	-17274
全长约	-17275
版本中	-17276
独立于	-17277
的生命	-17278
的立场	-17279
苏益格	-17280
gram	-17281
北洋政府	-17282
控股有限公司	-17283
布宜诺斯艾利斯	-17284
QL	-17285
变数	-17286
口的	-17287
在世	-17288
多芬	-17289
太尉	-17290
对她	-17291
拉曼	-17292
朝向	-17293
林下	-17294
班车	-17295
雷德	-17296
面阔	-17297
鼓楼	-17298
齐亚	-17299
ied	-17300
年取得	-17301
研究中	-17302
第一种	-17303
光禄大夫	-17304
公共汽车	-17305
电影制片厂	-17306
次全国人口普查	-17307
ml	-17308
▁国	-17309
二元	-17310
会晤	-17311
低的	-17312
军部	-17313
年少	-17314
插曲	-17315
本属	-17316
正线	-17317
祖师	-17318
索斯	-17319
遣使	-17320
遥控	-17321
van	-17322
万余人	-17323
档案馆	-17324
步兵团	-17325
第一场	-17326
较低的	-17327
销售量	-17328
ider	-17329
战争结束	-17330
沿海地区	-17331
西里西亚	-17332
比赛开始后	-17333
是位于美国印地安纳州	-17334
ик	-17335
▁惠	-17336
倒闭	-17337
党政	-17338
台后	-17339
山丘	-17340
所著	-17341
折磨	-17342
指代	-17343
特克	-17344
西非	-17345
达荷	-17346
静止	-17347
麾下	-17348
▁影片	-17349
列车在	-17350
发生过	-17351
很高的	-17352
的场景	-17353
第四季	-17354
范围的	-17355
被指控	-17356
其中之一	-17357
BN	-17358
产卵	-17359
北朝	-17360
外务	-17361
师傅	-17362
年入	-17363
持节	-17364
相处	-17365
胜地	-17366
脆弱	-17367
艘船	-17368
跟进	-17369
通话	-17370
鱼科	-17371
▁巴西	-17372
人类学	-17373
小学校	-17374
第二张	-17375
适当的	-17376
卢瓦雷省	-17377
臀鳍硬棘	-17378
▁用	-17379
▁绿	-17380
兰斯	-17381
变身	-17382
后会	-17383
塞琉	-17384
大体	-17385
手套	-17386
手工	-17387
月于	-17388
杜尔	-17389
栏目	-17390
泛滥	-17391
潜舰	-17392
焊接	-17393
自立	-17394
领军	-17395
高考	-17396
▁他们	-17397
列出了	-17398
影响到	-17399
显著的	-17400
级别的	-17401
网球场	-17402
部队在	-17403
下莱茵省	-17404
印第安人	-17405
日本海军	-17406
鲶科的其中一种	-17407
▁派	-17408
中英	-17409
号与	-17410
天神	-17411
夸克	-17412
所杀	-17413
瓦莱	-17414
禅师	-17415
童话	-17416
耳他	-17417
至大	-17418
菩提	-17419
辣椒	-17420
达利	-17421
锯齿	-17422
▁el	-17423
中的一	-17424
协约国	-17425
卢瓦省	-17426
和教育	-17427
士比亚	-17428
的职务	-17429
真实的	-17430
科威特	-17431
金钟奖	-17432
国际贸易	-17433
职业联赛	-17434
距离地球	-17435
▁阮	-17436
中与	-17437
交接	-17438
伊凡	-17439
周遭	-17440
▁决赛	-17441
同时期	-17442
寺少卿	-17443
托利亚	-17444
的英文	-17445
成为美国	-17446
▁Comm	-17447
▁俱乐部生涯	-17448
▁是下辖的一个	-17449
Kh	-17450
▁站	-17451
▁黎	-17452
为之	-17453
井上	-17454
后缀	-17455
武宗	-17456
液态	-17457
燃气	-17458
由原	-17459
白石	-17460
纳姆	-17461
胸鳍	-17462
节的	-17463
不喜欢	-17464
任务的	-17465
几十年	-17466
年代至	-17467
日清晨	-17468
症候群	-17469
第一张	-17470
红外线	-17471
Av	-17472
ko	-17473
▁保	-17474
▁玉	-17475
上部	-17476
书信	-17477
仅是	-17478
仔细	-17479
停电	-17480
即在	-17481
孔雀	-17482
本营	-17483
此项	-17484
求助	-17485
罗纳	-17486
见解	-17487
造访	-17488
阿特	-17489
霍恩	-17490
音符	-17491
香蕉	-17492
打电话	-17493
演化支	-17494
的食物	-17495
候补委员	-17496
可追溯到	-17497
日在日本	-17498
积极参与	-17499
苹果日报	-17500
莎士比亚	-17501
总统候选人	-17502
▁Center	-17503
▁С	-17504
▁关	-17505
▁兴	-17506
世祖	-17507
克隆	-17508
制式	-17509
均衡	-17510
大胆	-17511
头骨	-17512
平凡	-17513
法和	-17514
美浓	-17515
联捷	-17516
航程	-17517
酰胺	-17518
金币	-17519
高射	-17520
ras	-17521
协奏曲	-17522
同盟会	-17523
在游戏	-17524
年重新	-17525
机械化	-17526
生产了	-17527
立法局	-17528
中心城市	-17529
自然资源	-17530
Black	-17531
分布于印度	-17532
万岁	-17533
刑罚	-17534
前两	-17535
可爱	-17536
哈林	-17537
声乐	-17538
将与	-17539
帮派	-17540
底下	-17541
款项	-17542
苏梅	-17543
证件	-17544
送入	-17545
防火	-17546
阿诺	-17547
震动	-17548
顺德	-17549
首秀	-17550
NET	-17551
▁ST	-17552
之类的	-17553
军军长	-17554
在经过	-17555
坐落在	-17556
提供给	-17557
超新星	-17558
▁化学式	-17559
▁西班牙	-17560
一般认为	-17561
三十五年	-17562
中国民主	-17563
交通枢纽	-17564
艾哈迈德	-17565
行政机关	-17566
最高人民法院	-17567
IE	-17568
TH	-17569
▁圆	-17570
▁来	-17571
不定	-17572
县厅	-17573
填充	-17574
宪宗	-17575
推崇	-17576
攻坚	-17577
斩杀	-17578
相等	-17579
等候	-17580
约合	-17581
自古	-17582
落差	-17583
高音	-17584
黄旗	-17585
宣传部	-17586
引发的	-17587
据报道	-17588
近距离	-17589
队参加	-17590
今河北省	-17591
尼古拉斯	-17592
此外还有	-17593
明治三十四年	-17594
的一个旧市镇	-17595
职业篮球运动员	-17596
一向	-17597
亲近	-17598
八旗	-17599
其对	-17600
北市	-17601
同类	-17602
型车	-17603
常在	-17604
年老	-17605
海面	-17606
热量	-17607
田站	-17608
的六	-17609
直选	-17610
美方	-17611
联席	-17612
虎尾	-17613
血腥	-17614
选入	-17615
钱塘	-17616
Ser	-17617
Tor	-17618
▁me	-17619
▁中华	-17620
▁球会	-17621
中没有	-17622
但当时	-17623
奥布省	-17624
学年度	-17625
它们是	-17626
最新的	-17627
爆发了	-17628
alis	-17629
世界大学	-17630
机车车辆	-17631
▁切	-17632
一文	-17633
其母	-17634
勾结	-17635
国徽	-17636
实为	-17637
家督	-17638
小龙	-17639
文森	-17640
旺代	-17641
水质	-17642
环路	-17643
由李	-17644
竞逐	-17645
米斯	-17646
纳森	-17647
采矿	-17648
香料	-17649
出席了	-17650
建立起	-17651
所用的	-17652
演变成	-17653
演算法	-17654
线上的	-17655
经纪人	-17656
编年史	-17657
金曲奖	-17658
银行的	-17659
ourt	-17660
现实主义	-17661
中性	-17662
佛陀	-17663
侨民	-17664
僵尸	-17665
古坟	-17666
商铺	-17667
塞维	-17668
年冬	-17669
本舰	-17670
束缚	-17671
树立	-17672
水稻	-17673
番禺	-17674
科拉	-17675
而无	-17676
至第	-17677
西拉	-17678
须贺	-17679
ени	-17680
为了让	-17681
基本的	-17682
堪萨斯	-17683
由于在	-17684
输给了	-17685
违反了	-17686
追随者	-17687
事件发生	-17688
喜马拉雅	-17689
我们可以	-17690
有一定的	-17691
武装力量	-17692
货运业务	-17693
中央政治局	-17694
ür	-17695
上被	-17696
上都	-17697
以一	-17698
哈赤	-17699
哪里	-17700
奇艺	-17701
好像	-17702
布劳	-17703
江区	-17704
留言	-17705
瘟疫	-17706
缓和	-17707
蓝本	-17708
虔诚	-17709
言之	-17710
Sun	-17711
会议的	-17712
可行性	-17713
在现代	-17714
太空人	-17715
工业化	-17716
有限的	-17717
特别的	-17718
经理人	-17719
被逮捕	-17720
客运业务	-17721
市中心的	-17722
WS	-17723
上前	-17724
介乎	-17725
先在	-17726
学社	-17727
展厅	-17728
山脚	-17729
斗六	-17730
曹魏	-17731
绅士	-17732
而行	-17733
迁都	-17734
透镜	-17735
重用	-17736
阿利	-17737
青森	-17738
风琴	-17739
驶入	-17740
鲨鱼	-17741
bor	-17742
中美洲	-17743
亿欧元	-17744
卫生部	-17745
女配角	-17746
差不多	-17747
年下半	-17748
新世界	-17749
波特兰	-17750
第一款	-17751
Mont	-17752
中位数为	-17753
布达佩斯	-17754
是中国大	-17755
红十字会	-17756
财政收入	-17757
▁Mark	-17758
目前效力于	-17759
Unicode	-17760
下属的一座城市	-17761
该省份为法国西南部内	-17762
Mo	-17763
一八	-17764
争端	-17765
从前	-17766
刘易	-17767
吴国	-17768
增添	-17769
学期	-17770
将要	-17771
技艺	-17772
拓宽	-17773
文庙	-17774
水生	-17775
百人	-17776
石化	-17777
蓝光	-17778
说唱	-17779
金沙	-17780
阻力	-17781
骨折	-17782
▁演艺	-17783
司郎中	-17784
大型的	-17785
接受的	-17786
施塔特	-17787
艺术与	-17788
夺得冠军	-17789
自由贸易	-17790
▁Hill	-17791
是一座位于	-17792
村级行政区划单位	-17793
不成	-17794
六日	-17795
回避	-17796
坑壁	-17797
如来	-17798
将她	-17799
开花	-17800
引来	-17801
撤军	-17802
斗士	-17803
楼面	-17804
比喻	-17805
状腺	-17806
用到	-17807
短短	-17808
考核	-17809
请辞	-17810
隐瞒	-17811
预料	-17812
Max	-17813
pro	-17814
传感器	-17815
创办的	-17816
对方的	-17817
的经验	-17818
危地马拉	-17819
心理学家	-17820
研究发现	-17821
▁下级分类	-17822
Pe	-17823
▁例	-17824
▁汪	-17825
制宪	-17826
号是	-17827
威克	-17828
尼罗	-17829
已达	-17830
开车	-17831
树脂	-17832
桃花	-17833
烟花	-17834
登顶	-17835
皮特	-17836
祠堂	-17837
能否	-17838
认罪	-17839
通判	-17840
飞马	-17841
add	-17842
▁是由	-17843
▁用途	-17844
其后在	-17845
到香港	-17846
发展和	-17847
蛋白酶	-17848
发展成为	-17849
排名第一	-17850
▁William	-17851
▁National	-17852
wa	-17853
三度	-17854
偿还	-17855
写法	-17856
初段	-17857
前三	-17858
大清	-17859
字典	-17860
年生	-17861
有自	-17862
罗萨	-17863
金银	-17864
防范	-17865
香山	-17866
Her	-17867
不平等	-17868
使他们	-17869
据报导	-17870
里程碑	-17871
古斯塔夫	-17872
证据表明	-17873
▁种	-17874
之道	-17875
以供	-17876
原是	-17877
厨师	-17878
天正	-17879
扶梯	-17880
投出	-17881
旺达	-17882
普瓦	-17883
比丘	-17884
汉代	-17885
流的	-17886
门市	-17887
集群	-17888
音响	-17889
默认	-17890
Big	-17891
ets	-17892
▁se	-17893
▁政府	-17894
参与的	-17895
法拉利	-17896
礼拜堂	-17897
进出口	-17898
开始出现	-17899
的国际赛事	-17900
▁River	-17901
HP	-17902
▁银	-17903
为妻	-17904
为金	-17905
八卦	-17906
关中	-17907
北斗	-17908
又因	-17909
大典	-17910
客座	-17911
小熊	-17912
教官	-17913
机率	-17914
永和	-17915
统称	-17916
艾德	-17917
蓬勃	-17918
追封	-17919
尔群岛	-17920
年通过	-17921
新竹市	-17922
的女孩	-17923
自民党	-17924
被重新	-17925
rian	-17926
rict	-17927
受欢迎的	-17928
的大多数	-17929
澳门特别行政区	-17930
之差	-17931
便可	-17932
兵变	-17933
冲出	-17934
安人	-17935
小林	-17936
拖延	-17937
摄取	-17938
方块	-17939
村镇	-17940
毁于	-17941
牵涉	-17942
田区	-17943
由陈	-17944
韵母	-17945
型客车	-17946
抗生素	-17947
汤普森	-17948
物质的	-17949
研究和	-17950
ried	-17951
动车组列车	-17952
Thomas	-17953
Mk	-17954
兑换	-17955
军和	-17956
出示	-17957
后部	-17958
她对	-17959
所的	-17960
文法	-17961
每人	-17962
粗糙	-17963
索夫	-17964
该作	-17965
赛制	-17966
饮用	-17967
▁反响	-17968
任务是	-17969
及文化	-17970
可靠性	-17971
形成于	-17972
日完成	-17973
质量的	-17974
足球赛	-17975
机组人员	-17976
相比之下	-17977
人民政府驻	-17978
MM	-17979
伽利	-17980
划出	-17981
协作	-17982
历官	-17983
屿山	-17984
是的	-17985
歌谣	-17986
水分	-17987
海运	-17988
玛利	-17989
这批	-17990
克罗埃	-17991
卢卡斯	-17992
厦门市	-17993
和其它	-17994
年为止	-17995
日通过	-17996
是他的	-17997
游乐场	-17998
的不满	-17999
连接到	-18000
预备队	-18001
森林公园	-18002
财政部长	-18003
ictor	-18004
联合国大会	-18005
▁下辖以下村级行政区划单位	-18006
GL	-18007
RC	-18008
▁任	-18009
东起	-18010
偏见	-18011
六人	-18012
兵败	-18013
可于	-18014
导入	-18015
文理	-18016
旅顺	-18017
着手	-18018
筹款	-18019
精致	-18020
菊科	-18021
野外	-18022
骑马	-18023
gar	-18024
三年后	-18025
日首次	-18026
的标志	-18027
神话中	-18028
西安市	-18029
韦斯特	-18030
amer	-18031
一个新的	-18032
华纳兄弟	-18033
取得胜利	-18034
城市规划	-18035
美术学院	-18036
所属行政区域划归	-18037
中药	-18038
了三	-18039
人名	-18040
会把	-18041
前所	-18042
卡萨	-18043
古装	-18044
外传	-18045
对上	-18046
应邀	-18047
救国	-18048
杀伤	-18049
玛雅	-18050
筹办	-18051
苏区	-18052
苏珊	-18053
英亩	-18054
野心	-18055
马六	-18056
hed	-18057
场赛事	-18058
埃米尔	-18059
於伦敦	-18060
的形状	-18061
的私人	-18062
米尔顿	-18063
铁路和	-18064
伊斯兰国	-18065
https	-18066
殿试登进士	-18067
值得一提的是	-18068
▁中华人民共和国成立后	-18069
▁牛	-18070
京畿	-18071
侧扁	-18072
分属	-18073
唐人	-18074
多瑙	-18075
幅画	-18076
支厅	-18077
枪杀	-18078
瑜伽	-18079
账号	-18080
赛区	-18081
颁授	-18082
elf	-18083
rum	-18084
▁位置	-18085
▁物种	-18086
▁设施	-18087
恐怖分	-18088
确定了	-18089
近现代	-18090
呼和浩特	-18091
▁Media	-18092
英联邦运动会	-18093
lu	-18094
下落	-18095
九十	-18096
交错	-18097
其妻	-18098
宜昌	-18099
层级	-18100
帕夏	-18101
常年	-18102
星星	-18103
是可	-18104
砲塔	-18105
精心	-18106
而上	-18107
该院	-18108
身处	-18109
阴茎	-18110
▁下表	-18111
为核心	-18112
更改为	-18113
环境下	-18114
边疆区	-18115
▁Sec	-18116
官方宣布	-18117
散骑常侍	-18118
位于本地区	-18119
克罗埃西亚	-18120
DB	-18121
住持	-18122
却不	-18123
拆毁	-18124
改版	-18125
暑假	-18126
比安	-18127
珍贵	-18128
盈利	-18129
贝蒂	-18130
创立的	-18131
波尔多	-18132
的形成	-18133
网路上	-18134
行动的	-18135
aker	-18136
▁罗伯特	-18137
圣地亚哥	-18138
县的一个镇区	-18139
FF	-18140
为长	-18141
作证	-18142
依附	-18143
先是	-18144
在华	-18145
塔纳	-18146
大碟	-18147
平章	-18148
普兰	-18149
界别	-18150
神奇	-18151
落于	-18152
质素	-18153
他们还	-18154
联赛中	-18155
警卫队	-18156
议会的	-18157
国际象棋	-18158
浙江大学	-18159
结果显示	-18160
防御工事	-18161
非裔美国人	-18162
▁国家队生涯	-18163
万物	-18164
会后	-18165
分站	-18166
动乱	-18167
动用	-18168
床位	-18169
打死	-18170
新歌	-18171
梅里	-18172
票的	-18173
类群	-18174
谋反	-18175
贾斯	-18176
起用	-18177
MVP	-18178
▁此站	-18179
▁荷兰	-18180
太空船	-18181
康熙帝	-18182
建立于	-18183
建设的	-18184
政权的	-18185
领导者	-18186
▁只列出	-18187
在意大利	-18188
鄂图曼帝国	-18189
是一个位于中国	-18190
串联	-18191
为她	-18192
信的	-18193
勒索	-18194
各处	-18195
塑像	-18196
家居	-18197
户口	-18198
扣押	-18199
掩盖	-18200
攀登	-18201
教的	-18202
普莱	-18203
激动	-18204
町的	-18205
绕过	-18206
罹难	-18207
萝卜	-18208
譬如	-18209
订立	-18210
读取	-18211
调到	-18212
轰动	-18213
运往	-18214
近乎	-18215
都灵	-18216
Jul	-18217
一定要	-18218
作为其	-18219
出生的	-18220
召开的	-18221
并因此	-18222
生产商	-18223
由一个	-18224
的分支	-18225
的单曲	-18226
的外观	-18227
空间站	-18228
表达式	-18229
通常以	-18230
Rock	-18231
变得更加	-18232
犹太人的	-18233
▁House	-18234
亦以	-18235
入朝	-18236
再以	-18237
北段	-18238
回旋	-18239
地委	-18240
大雨	-18241
尖锐	-18242
月以	-18243
渔港	-18244
苏共	-18245
阿都	-18246
骄傲	-18247
Ang	-18248
冲锋枪	-18249
剧作家	-18250
反坦克	-18251
君主制	-18252
迁移至	-18253
▁Art	-18254
▁詹姆斯	-18255
区域性的	-18256
四十三年	-18257
▁Cont	-18258
ão	-18259
于世	-18260
列克	-18261
各站	-18262
吞吐	-18263
和一	-18264
城南	-18265
我爱	-18266
托利	-18267
日夜	-18268
梅西	-18269
江宁	-18270
版图	-18271
破碎	-18272
祭典	-18273
起到	-18274
这让	-18275
上下行	-18276
介绍了	-18277
南投县	-18278
突尼斯	-18279
罗德里	-18280
转会费	-18281
达拉斯	-18282
马里亚	-18283
▁本地区	-18284
单式月台	-18285
又被称为	-18286
年推出的	-18287
该地区的	-18288
铁路运输	-18289
阿尔代什	-18290
iller	-18291
石勒苏益格	-18292
人大常委会副主任	-18293
之首	-18294
会稽	-18295
双手	-18296
合众	-18297
年长	-18298
报仇	-18299
救生	-18300
而自	-18301
英吋	-18302
西魏	-18303
赛尔	-18304
了很多	-18305
右支流	-18306
婆罗洲	-18307
工人党	-18308
的影片	-18309
的文件	-18310
第三轮	-18311
营业额	-18312
表达了	-18313
▁Sci	-18314
人民公社	-18315
他的作品	-18316
达赖喇嘛	-18317
zy	-18318
享寿	-18319
份额	-18320
偏离	-18321
军火	-18322
多禄	-18323
夫斯	-18324
很长	-18325
恋人	-18326
持久	-18327
流水	-18328
海默	-18329
深处	-18330
源地	-18331
石的	-18332
空白	-18333
而定	-18334
雇用	-18335
▁ar	-18336
处女作	-18337
就是在	-18338
是一支	-18339
服务业	-18340
▁Hot	-18341
世纪后期	-18342
作为一种	-18343
准决赛以	-18344
华盛顿州	-18345
波斯尼亚	-18346
▁Open	-18347
月参加工作	-18348
eneral	-18349
CF	-18350
和后	-18351
园艺	-18352
大河	-18353
尼昂	-18354
并使	-18355
废墟	-18356
归附	-18357
拉开	-18358
改隶	-18359
施瓦	-18360
是南	-18361
气管	-18362
测验	-18363
考官	-18364
胚胎	-18365
芳香	-18366
轮机	-18367
辅佐	-18368
▁球员	-18369
也不能	-18370
各样的	-18371
教区的	-18372
氨基酸	-18373
热内卢	-18374
爱奇艺	-18375
等地区	-18376
日举行的	-18377
该省份为法国东部	-18378
第一次世界大战期间	-18379
▁嘉	-18380
不已	-18381
为国	-18382
五次	-18383
但此	-18384
儒学	-18385
别尔	-18386
唯有	-18387
头盔	-18388
安乐	-18389
寄宿	-18390
建华	-18391
性交	-18392
教廷	-18393
旁白	-18394
概述	-18395
由大	-18396
诺亚	-18397
违纪	-18398
▁过去	-18399
以后的	-18400
八达通	-18401
客家人	-18402
月推出	-18403
有一次	-18404
继任者	-18405
该游戏	-18406
飞行器	-18407
▁总面积	-18408
为中心的	-18409
和意大利	-18410
田径比赛	-18411
袭击事件	-18412
计算机科学	-18413
是法国上法兰西大区	-18414
Ca	-18415
与黄	-18416
中大	-18417
停站	-18418
古拉	-18419
可知	-18420
号及	-18421
均可	-18422
安倍	-18423
导引	-18424
年终	-18425
摩西	-18426
林根	-18427
深化	-18428
照射	-18429
相扑	-18430
纷争	-18431
营长	-18432
该师	-18433
黑山	-18434
Rad	-18435
eek	-18436
东北接	-18437
二二八	-18438
月成立	-18439
哈尔滨市	-18440
联合政府	-18441
切除	-18442
创设	-18443
吕宋	-18444
商用	-18445
外卡	-18446
局限	-18447
街上	-18448
辗转	-18449
这颗	-18450
颌骨	-18451
为代表	-18452
为配合	-18453
人们的	-18454
凡尔赛	-18455
势力的	-18456
教育和	-18457
界人士	-18458
IUCN	-18459
▁Med	-18460
▁以色列	-18461
关系密切	-18462
负面影响	-18463
这个角色	-18464
obile	-18465
▁Serv	-18466
▁Store	-18467
▁只列出曾进入	-18468
的国际赛事成绩	-18469
属下的一个植物种	-18470
减低	-18471
出海	-18472
制糖	-18473
又将	-18474
山林	-18475
忽必	-18476
捷尔	-18477
数月	-18478
是全	-18479
民歌	-18480
海里	-18481
的转	-18482
纳达	-18483
考验	-18484
而以	-18485
胡椒	-18486
退回	-18487
饲料	-18488
首战	-18489
发明了	-18490
在第一	-18491
宜兰县	-18492
的任何	-18493
的解释	-18494
可以透过	-18495
四十一年	-18496
▁Life	-18497
National	-18498
全国人民代表大会	-18499
PN	-18500
▁车	-18501
两党	-18502
仁川	-18503
付出	-18504
和金	-18505
善良	-18506
声名	-18507
建物	-18508
强力	-18509
每集	-18510
注明	-18511
火烧	-18512
瓜分	-18513
町村	-18514
艺文	-18515
褒贬	-18516
诏书	-18517
高约	-18518
高阶	-18519
Ind	-18520
ota	-18521
东海道	-18522
两者的	-18523
全日制	-18524
塞琉古	-18525
大会堂	-18526
宣布与	-18527
尼夫卡	-18528
巴塞隆	-18529
技术和	-18530
达尔文	-18531
预选赛	-18532
ette	-18533
▁рай	-18534
努尔哈赤	-18535
勃兰登堡	-18536
有人认为	-18537
其中一个种	-18538
河的右支流	-18539
ht	-18540
不治	-18541
之争	-18542
功劳	-18543
卫门	-18544
同居	-18545
外事	-18546
她以	-18547
客量	-18548
本体	-18549
水解	-18550
罗的	-18551
踏入	-18552
迈尔	-18553
配种	-18554
CBS	-18555
中国家	-18556
博士后	-18557
占据了	-18558
取名为	-18559
大小的	-18560
成一个	-18561
文化局	-18562
杰克森	-18563
河上游	-18564
河谷省	-18565
米之间	-18566
选出的	-18567
县委书记	-18568
国际关系	-18569
强烈热带风暴	-18570
上届	-18571
他向	-18572
以求	-18573
伤口	-18574
商贸	-18575
执业	-18576
教训	-18577
斯麦	-18578
族裔	-18579
▁列车	-18580
▁生物	-18581
二十二	-18582
政治学	-18583
科殿试	-18584
第五次	-18585
纽伦堡	-18586
行动党	-18587
行动物	-18588
该网站	-18589
在历史上	-18590
岁及以上	-18591
最后一位	-18592
蒸汽机车	-18593
麻省理工学院	-18594
▁只列出曾进入准决赛	-18595
Na	-18596
ль	-18597
且有	-18598
两面	-18599
互助	-18600
克什	-18601
免职	-18602
初回	-18603
多万	-18604
妨碍	-18605
审批	-18606
年对	-18607
强劲	-18608
持股	-18609
新民	-18610
日从	-18611
时才	-18612
汉姆	-18613
王宫	-18614
绕道	-18615
裂变	-18616
解救	-18617
重现	-18618
食材	-18619
ega	-18620
▁地形	-18621
代言人	-18622
决赛周	-18623
十二码	-18624
在台北	-18625
年前的	-18626
年逝世	-18627
忽必烈	-18628
故事的	-18629
的宣传	-18630
真人秀	-18631
足球场	-18632
运动家	-18633
郑成功	-18634
降低了	-18635
三分之二	-18636
州府知府	-18637
智能手机	-18638
向公众开放	-18639
哥斯达黎加	-18640
位于法国中央	-18641
新增确诊病例	-18642
▁市	-18643
▁袁	-18644
偏差	-18645
几十	-18646
哈姆	-18647
思潮	-18648
患上	-18649
慈禧	-18650
数名	-18651
旋即	-18652
气的	-18653
泉水	-18654
素质	-18655
红楼	-18656
那亚	-18657
Les	-18658
arp	-18659
促进会	-18660
死亡的	-18661
被封为	-18662
袭击了	-18663
运行的	-18664
其中一些	-18665
其中包含	-18666
全国人大常委会	-18667
Si	-18668
京兆	-18669
尤为	-18670
康乐	-18671
折射	-18672
新式	-18673
泛美	-18674
症的	-18675
米格	-18676
细小	-18677
细长	-18678
肾脏	-18679
行署	-18680
说过	-18681
远洋	-18682
通俗	-18683
银币	-18684
▁以及	-18685
中国女	-18686
他没有	-18687
但他的	-18688
可获得	-18689
复仇者	-18690
年提出	-18691
建成后	-18692
曾先后	-18693
的主权	-18694
背后的	-18695
在加拿大	-18696
是第一个	-18697
神经系统	-18698
阿卜杜勒	-18699
ms	-18700
▁向	-18701
他不	-18702
冲积	-18703
反馈	-18704
受灾	-18705
大片	-18706
夺下	-18707
归来	-18708
急救	-18709
报酬	-18710
时就	-18711
李家	-18712
站与	-18713
纠正	-18714
英勇	-18715
诗词	-18716
麒麟	-18717
▁天津	-18718
任职于	-18719
同时亦	-18720
增长的	-18721
弗朗茨	-18722
枚银牌	-18723
的角度	-18724
西九龙	-18725
地区为一	-18726
大学毕业	-18727
工商管理	-18728
贝尔格莱	-18729
首张专辑	-18730
该庄隶属于	-18731
羽毛球公开赛	-18732
Fi	-18733
PR	-18734
之门	-18735
可将	-18736
头痛	-18737
州立	-18738
幅度	-18739
擅自	-18740
机电	-18741
林郑	-18742
架设	-18743
盗贼	-18744
绝望	-18745
编撰	-18746
蒸发	-18747
计数	-18748
马列	-18749
了一位	-18750
兵库县	-18751
发行后	-18752
已完成	-18753
往返于	-18754
疾病的	-18755
结合了	-18756
马利亚	-18757
四十四年	-18758
地球物理	-18759
最伟大的	-18760
朝鲜王朝	-18761
大字亦改制为	-18762
新增境外输入确诊病例	-18763
TL	-18764
▁地	-18765
东线	-18766
加时	-18767
化县	-18768
常有	-18769
成书	-18770
报警	-18771
新港	-18772
旁遮	-18773
比率	-18774
租用	-18775
精力	-18776
该名	-18777
雷射	-18778
露西	-18779
骆驼	-18780
鲁克	-18781
个社区	-18782
出入境	-18783
南卡罗	-18784
在使用	-18785
在南京	-18786
地区和	-18787
拍摄了	-18788
解决了	-18789
较早的	-18790
工农红军	-18791
年代以来	-18792
日公布为	-18793
曾任中国	-18794
无脊椎动物	-18795
Mr	-18796
SF	-18797
两广	-18798
他有	-18799
只剩	-18800
张伯	-18801
曼城	-18802
棋手	-18803
法罗	-18804
注目	-18805
源县	-18806
粤剧	-18807
群组	-18808
而去	-18809
车和	-18810
过海	-18811
进深	-18812
鲸鱼	-18813
eri	-18814
▁路线	-18815
即使是	-18816
塔尔省	-18817
年退休	-18818
旁遮普	-18819
有别于	-18820
有名的	-18821
殖民者	-18822
男性的	-18823
获得者	-18824
飞机的	-18825
托洛茨基	-18826
最年轻的	-18827
▁钟	-18828
包头	-18829
字面	-18830
或被	-18831
时已	-18832
月娥	-18833
泛指	-18834
点球	-18835
红海	-18836
色素	-18837
该寺	-18838
路网	-18839
逗留	-18840
雨水	-18841
变速箱	-18842
嘉义市	-18843
年入选	-18844
有一位	-18845
沙群岛	-18846
游骑兵	-18847
的丈夫	-18848
的程度	-18849
的身分	-18850
终于在	-18851
计划将	-18852
通讯社	-18853
采取了	-18854
ural	-18855
中央银行	-18856
克拉荷马	-18857
媒体报道	-18858
ittle	-18859
▁Star	-18860
常住人口为	-18861
皇家马德里	-18862
联邦调查局	-18863
新冠肺炎确诊病例	-18864
五州	-18865
侯赛	-18866
再由	-18867
初代	-18868
吉布	-18869
天宝	-18870
汇集	-18871
灰蝶	-18872
琵琶	-18873
的木	-18874
醒来	-18875
量化	-18876
Can	-18877
isa	-18878
之战中	-18879
也不是	-18880
半自动	-18881
形容为	-18882
显示了	-18883
的具体	-18884
的化学	-18885
的发现	-18886
等同于	-18887
篇论文	-18888
罗马人	-18889
荷兰语	-18890
oney	-18891
假面骑士	-18892
其他地方	-18893
户部主事	-18894
有关部门	-18895
生产建设	-18896
▁Inter	-18897
奥林匹克委员会	-18898
kh	-18899
为本	-18900
之日	-18901
产值	-18902
保管	-18903
加德	-18904
半个	-18905
南南	-18906
可谓	-18907
国史	-18908
圆环	-18909
在全	-18910
常任	-18911
恰好	-18912
热衷	-18913
狂热	-18914
相容	-18915
道理	-18916
郑国	-18917
Cal	-18918
▁qu	-18919
公学校	-18920
告诉他	-18921
和管理	-18922
武装分	-18923
物体的	-18924
的前提	-18925
逐渐被	-18926
ague	-18927
乌克兰的	-18928
柯本气候	-18929
ister	-18930
立法会选举	-18931
里约热内卢	-18932
各级文物保护单位列表	-18933
▁葛	-18934
两千	-18935
争霸	-18936
典范	-18937
化后	-18938
地盘	-18939
埃克	-18940
多间	-18941
大明	-18942
小吃	-18943
差点	-18944
平滑	-18945
振英	-18946
无奈	-18947
曲风	-18948
林彪	-18949
桥段	-18950
沙丘	-18951
注释	-18952
罗兰	-18953
美女	-18954
道及	-18955
里卡	-18956
骨灰	-18957
▁本剧	-18958
位置为	-18959
在北美	-18960
并同时	-18961
敌人的	-18962
美元的	-18963
设备的	-18964
金字塔	-18965
阿仙奴	-18966
▁Min	-18967
平均水深	-18968
用于治疗	-18969
他被任命为	-18970
威斯特法伦	-18971
▁район	-18972
座的一颗恒星	-18973
olution	-18974
▁Association	-18975
久保	-18976
乳房	-18977
付款	-18978
仙人	-18979
偏远	-18980
塞勒	-18981
天山	-18982
宽约	-18983
岁月	-18984
括号	-18985
时称	-18986
曾向	-18987
检校	-18988
涉案	-18989
编队	-18990
阵风	-18991
ati	-18992
也表示	-18993
制造厂	-18994
双胞胎	-18995
只需要	-18996
建立后	-18997
正面的	-18998
至今日	-18999
运输机	-19000
卢布	-19001
微型	-19002
微波	-19003
惨败	-19004
我想	-19005
放宽	-19006
朗日	-19007
河县	-19008
油田	-19009
炀帝	-19010
白旗	-19011
记得	-19012
试飞	-19013
阮朝	-19014
首家	-19015
则是由	-19016
在此时	-19017
狄奥多	-19018
的时期	-19019
莫哈末	-19020
▁War	-19021
体育中心	-19022
下辖的一个乡	-19023
该省份为法国西北部沿海省份	-19024
一族	-19025
他到	-19026
伊特	-19027
口腔	-19028
同构	-19029
后改	-19030
复苏	-19031
引退	-19032
戈里	-19033
水牛	-19034
缴获	-19035
肉类	-19036
腹地	-19037
衡阳	-19038
诗作	-19039
谈到	-19040
跨境	-19041
较差	-19042
音效	-19043
领兵	-19044
IGN	-19045
Tel	-19046
▁广州	-19047
上使用	-19048
中进行	-19049
为避免	-19050
华尔街	-19051
年全国	-19052
年德国	-19053
的项目	-19054
公布时间为	-19055
大学毕业后	-19056
底栖性鱼类	-19057
ME	-19058
东洋	-19059
五项	-19060
仁爱	-19061
凸出	-19062
卖出	-19063
原籍	-19064
吸入	-19065
完好	-19066
射杀	-19067
巫统	-19068
徒步	-19069
情侣	-19070
扳机	-19071
普勒	-19072
河与	-19073
波旁	-19074
禁区	-19075
穿上	-19076
营区	-19077
行长	-19078
象牙	-19079
院系	-19080
风球	-19081
鲁豫	-19082
Pol	-19083
esc	-19084
▁马克	-19085
仅有的	-19086
兵工厂	-19087
名义上	-19088
对美国	-19089
日期为	-19090
纪念日	-19091
者认为	-19092
认识到	-19093
名运动员	-19094
摩天大楼	-19095
由于当时	-19096
调查报告	-19097
这首歌曲	-19098
iTunes	-19099
▁Saint	-19100
▁Christ	-19101
Mi	-19102
▁佐	-19103
亨特	-19104
会中	-19105
公学	-19106
击破	-19107
判官	-19108
发病	-19109
固态	-19110
总科	-19111
悟空	-19112
慰问	-19113
排出	-19114
极地	-19115
武官	-19116
王建	-19117
电离	-19118
留尼	-19119
的加	-19120
达基	-19121
len	-19122
sen	-19123
为独立	-19124
外祖父	-19125
本鱼体	-19126
等方式	-19127
Comp	-19128
按察司副使	-19129
AG	-19130
sa	-19131
▁重	-19132
上野	-19133
不来	-19134
东平	-19135
之说	-19136
乘法	-19137
儿女	-19138
复辟	-19139
外壳	-19140
外汇	-19141
奖杯	-19142
山人	-19143
山体	-19144
所用	-19145
昌县	-19146
梦幻	-19147
犯下	-19148
瑞安	-19149
而下	-19150
耳朵	-19151
议程	-19152
赛程	-19153
销毁	-19154
阿巴	-19155
雷霆	-19156
以及其	-19157
其下辖	-19158
居民的	-19159
开始与	-19160
法国人	-19161
流行病	-19162
理由是	-19163
的士兵	-19164
的电视	-19165
美国驻	-19166
非物质	-19167
atic	-19168
well	-19169
训练中心	-19170
万元人民币	-19171
职业足球运动员	-19172
县的普查规定居民点	-19173
▁薛	-19174
千克	-19175
卢比	-19176
叠纪	-19177
四条	-19178
扰乱	-19179
柯南	-19180
段落	-19181
甚少	-19182
的亚	-19183
编导	-19184
速滑	-19185
配对	-19186
银幕	-19187
阻塞	-19188
面貌	-19189
高昂	-19190
曾表示	-19191
的经历	-19192
第二十	-19193
诸葛亮	-19194
ocal	-19195
作家协会	-19196
德塞夫勒	-19197
草本植物	-19198
▁codice	-19199
▁孟	-19200
中村	-19201
军机	-19202
利奇	-19203
利率	-19204
卡内	-19205
唐书	-19206
埃罗	-19207
壳类	-19208
太古	-19209
完备	-19210
富含	-19211
居所	-19212
山田	-19213
恒大	-19214
戈登	-19215
战力	-19216
扭转	-19217
故名	-19218
教职	-19219
服刑	-19220
牙医	-19221
牙哥	-19222
百济	-19223
立花	-19224
经商	-19225
藏在	-19226
这片	-19227
魔王	-19228
专用线	-19229
促进了	-19230
地理学	-19231
新华社	-19232
滤波器	-19233
演艺圈	-19234
航空队	-19235
伊利沙伯	-19236
弹道导弹	-19237
游戏中的	-19238
进行调查	-19239
研究所所长	-19240
ington	-19241
翰林院庶吉士	-19242
ле	-19243
▁河	-19244
与北	-19245
为数	-19246
乡的	-19247
使人	-19248
全名	-19249
减速	-19250
吉田	-19251
奶油	-19252
归纳	-19253
战神	-19254
打工	-19255
有色	-19256
热潮	-19257
终到	-19258
能让	-19259
遗留	-19260
酸性	-19261
fin	-19262
共发生	-19263
大马路	-19264
平均每	-19265
星期五	-19266
棒球场	-19267
消防员	-19268
葡萄糖	-19269
警务处	-19270
uild	-19271
▁you	-19272
人民医院	-19273
犹太会堂	-19274
之命	-19275
了约	-19276
任为	-19277
先祖	-19278
单于	-19279
图中	-19280
在日	-19281
断交	-19282
水灾	-19283
渡河	-19284
百度	-19285
类比	-19286
赞美	-19287
选角	-19288
陕北	-19289
颇有	-19290
▁动画	-19291
▁拍摄	-19292
写了一	-19293
来到了	-19294
▁Pol	-19295
保险公司	-19296
帝国主义	-19297
旅游景点	-19298
今日行政区	-19299
合力	-19300
城主	-19301
头上	-19302
存取	-19303
小屋	-19304
所部	-19305
月面	-19306
枪支	-19307
特首	-19308
电网	-19309
紧凑	-19310
而得	-19311
联名	-19312
见过	-19313
车程	-19314
载有	-19315
过量	-19316
irc	-19317
▁伊朗	-19318
之一是	-19319
国安法	-19320
撰写的	-19321
斯坦福	-19322
斯维尔	-19323
日生于	-19324
枚铜牌	-19325
ifol	-19326
不敌赛会	-19327
世纪以来	-19328
南开大学	-19329
局副局长	-19330
成为当时	-19331
中风	-19332
们在	-19333
伊玛	-19334
密谋	-19335
康乃	-19336
性感	-19337
所能	-19338
杨氏	-19339
法务	-19340
淮河	-19341
留意	-19342
番台	-19343
的他	-19344
的身	-19345
矿工	-19346
社论	-19347
赐予	-19348
趋于	-19349
轻铁	-19350
闸口	-19351
鸡蛋	-19352
Wii	-19353
ded	-19354
▁亨利	-19355
吉祥物	-19356
天安门	-19357
展现出	-19358
萨摩亚	-19359
这导致	-19360
闽南语	-19361
为主题的	-19362
史克威尔	-19363
官方语言	-19364
意义上的	-19365
研究机构	-19366
蒙大拿州	-19367
克里斯托弗	-19368
▁主要比赛成绩	-19369
中国人民政治协商会议	-19370
cy	-19371
▁К	-19372
不上	-19373
不下	-19374
不死	-19375
之母	-19376
五种	-19377
会考	-19378
体力	-19379
保释	-19380
台地	-19381
和王	-19382
宝座	-19383
宣德	-19384
归咎	-19385
忠于	-19386
愉快	-19387
截然	-19388
李文	-19389
树枝	-19390
出售给	-19391
基隆市	-19392
嫌疑人	-19393
并且是	-19394
总干事	-19395
最喜欢	-19396
的情节	-19397
面积达	-19398
oper	-19399
混合双打	-19400
的所在地	-19401
阿尔萨斯	-19402
Script	-19403
Billboard	-19404
eh	-19405
▁经	-19406
万至	-19407
两院	-19408
信众	-19409
农林	-19410
冰球	-19411
加固	-19412
十几	-19413
南接	-19414
卡利	-19415
厂长	-19416
因果	-19417
多克	-19418
奏请	-19419
女巫	-19420
建模	-19421
挣扎	-19422
球菌	-19423
结成	-19424
缴纳	-19425
联谊	-19426
莱曼	-19427
逐出	-19428
他还是	-19429
其余的	-19430
卫星坑	-19431
合作社	-19432
和两个	-19433
大理石	-19434
文学家	-19435
的编辑	-19436
采访中	-19437
黑色的	-19438
研究表明	-19439
▁Chan	-19440
尼古拉耶夫	-19441
Switch	-19442
先头	-19443
可怕	-19444
弱势	-19445
文在	-19446
无疑	-19447
省略	-19448
罪恶	-19449
讨厌	-19450
还被	-19451
这家	-19452
二世的	-19453
他作为	-19454
六个月	-19455
安德尔	-19456
并参与	-19457
的特别	-19458
纳粹党	-19459
个行政村	-19460
其中一名	-19461
所组成的	-19462
海因里希	-19463
电力动车组	-19464
▁依	-19465
一再	-19466
万亩	-19467
三代	-19468
不高	-19469
专营	-19470
京广	-19471
其弟	-19472
即兴	-19473
台独	-19474
增值	-19475
定制	-19476
年大	-19477
彩绘	-19478
洛伦	-19479
租户	-19480
过高	-19481
迫击	-19482
ask	-19483
中写道	-19484
很多人	-19485
登场的	-19486
选择性	-19487
麦克斯	-19488
独立战争	-19489
西班牙的	-19490
哈尔科夫州	-19491
不清	-19492
专页	-19493
体为	-19494
前端	-19495
周榜	-19496
和原	-19497
固有	-19498
在同	-19499
城外	-19500
尾声	-19501
布袋	-19502
招牌	-19503
水电	-19504
湾的	-19505
玩笑	-19506
而异	-19507
谷歌	-19508
近郊	-19509
迪奥	-19510
鼓舞	-19511
▁us	-19512
再次被	-19513
司法部	-19514
因此他	-19515
找不到	-19516
本赛季	-19517
语言中	-19518
ioec	-19519
防空系统	-19520
道监察御史	-19521
该省份为法国东南部	-19522
▁道	-19523
于大	-19524
仪同	-19525
前一	-19526
十国	-19527
尔曼	-19528
建安	-19529
建置	-19530
板的	-19531
枪托	-19532
歌仔	-19533
汉城	-19534
测绘	-19535
湘潭	-19536
特遣	-19537
生病	-19538
绿党	-19539
若是	-19540
表中	-19541
Med	-19542
ato	-19543
之间有	-19544
乌干达	-19545
以保护	-19546
原计划	-19547
发射的	-19548
后进入	-19549
和军事	-19550
展现了	-19551
所说的	-19552
竞争力	-19553
通常被	-19554
金日成	-19555
▁res	-19556
合作关系	-19557
生活方式	-19558
语言学家	-19559
阿尔弗雷德	-19560
是一种有机化合物	-19561
相较于今日行政区	-19562
人口密度为每平方公里	-19563
七大	-19564
三军	-19565
代词	-19566
图瓦	-19567
室的	-19568
岛津	-19569
建康	-19570
忧郁	-19571
恩的	-19572
或译	-19573
李德	-19574
玉祥	-19575
脚本	-19576
获授	-19577
隔天	-19578
rie	-19579
▁赛程	-19580
共分为	-19581
和她的	-19582
并作为	-19583
枢密院	-19584
的儿童	-19585
贝多芬	-19586
赛事的	-19587
银河系	-19588
高中生	-19589
龙卷风	-19590
ople	-19591
民意调查	-19592
浙江乡试	-19593
目前为止	-19594
种族主义	-19595
一直持续到	-19596
地质调查局	-19597
▁Instit	-19598
ioecesis	-19599
日治明治三十四年	-19600
UM	-19601
▁次	-19602
一哩	-19603
上水	-19604
不和	-19605
与人	-19606
为无	-19607
伤势	-19608
列日	-19609
启程	-19610
四百	-19611
基夫	-19612
契机	-19613
妓女	-19614
山麓	-19615
度和	-19616
弹的	-19617
恶性	-19618
抵挡	-19619
精细	-19620
过大	-19621
黄浦	-19622
鼎盛	-19623
▁按照	-19624
中文系	-19625
后者的	-19626
开始前	-19627
指挥的	-19628
比赛于	-19629
经常在	-19630
部主任	-19631
镇管辖	-19632
鲁道夫	-19633
前往美国	-19634
庆祝活动	-19635
时设置的	-19636
这是一种	-19637
合并为新市镇	-19638
不准	-19639
东涌	-19640
出名	-19641
剧目	-19642
埔里	-19643
委派	-19644
弥撒	-19645
当主	-19646
往南	-19647
很久	-19648
整治	-19649
新约	-19650
新高	-19651
机匣	-19652
林家	-19653
缔结	-19654
薪资	-19655
误导	-19656
迷宫	-19657
THE	-19658
人之一	-19659
他们被	-19660
年秋季	-19661
的应用	-19662
被划入	-19663
转会至	-19664
刑部主事	-19665
奥运会的	-19666
HA	-19667
不让	-19668
借鉴	-19669
写入	-19670
同源	-19671
并自	-19672
曾因	-19673
朱德	-19674
检视	-19675
特伦	-19676
绘图	-19677
色调	-19678
蒂安	-19679
赏赐	-19680
邦的	-19681
饱受	-19682
马卡	-19683
▁TO	-19684
▁晚年	-19685
不使用	-19686
为国家	-19687
提名的	-19688
现在是	-19689
电车站	-19690
舰队的	-19691
设立于	-19692
heim	-19693
▁Cap	-19694
交通工具	-19695
他的母亲	-19696
反应得到	-19697
座的一个	-19698
机动战士	-19699
河的支流	-19700
疫情防控	-19701
福尔摩斯	-19702
明治四十二年	-19703
柯本气候分类法	-19704
ом	-19705
一番	-19706
为五	-19707
偷偷	-19708
其下	-19709
列强	-19710
利比	-19711
前述	-19712
呼叫	-19713
大事	-19714
屏蔽	-19715
手语	-19716
打倒	-19717
投射	-19718
施泰	-19719
欠缺	-19720
法文	-19721
法老	-19722
直落	-19723
罗森	-19724
耦合	-19725
苗族	-19726
西与	-19727
une	-19728
与文化	-19729
巴塞尔	-19730
数十年	-19731
的关注	-19732
的反对	-19733
的地震	-19734
的父母	-19735
联赛杯	-19736
花莲县	-19737
萨瓦省	-19738
克里夫兰	-19739
内容包括	-19740
巴士服务	-19741
建筑设计	-19742
trans	-19743
第十一届全国政协委员	-19744
uj	-19745
万册	-19746
二至	-19747
公庙	-19748
出没	-19749
加深	-19750
和反	-19751
哈维	-19752
天宫	-19753
抓获	-19754
罗拉	-19755
页岩	-19756
龙王	-19757
rab	-19758
▁事故	-19759
▁选举	-19760
之后他	-19761
之后被	-19762
市级镇	-19763
的广告	-19764
的贡献	-19765
这是他	-19766
司职中场	-19767
年被列为	-19768
新闻节目	-19769
褒贬不一	-19770
记者会上	-19771
是位于中国	-19772
生产建设兵团	-19773
▁姚	-19774
为南	-19775
假定	-19776
决斗	-19777
卫报	-19778
史提	-19779
吨的	-19780
女真	-19781
安条	-19782
平常	-19783
惯性	-19784
意即	-19785
所生	-19786
格洛	-19787
油箱	-19788
烈风	-19789
红雀	-19790
老大	-19791
脱落	-19792
街站	-19793
逼迫	-19794
量级	-19795
三十六	-19796
中全会	-19797
他已经	-19798
会议中	-19799
公园内	-19800
多功能	-19801
无条件	-19802
电影和	-19803
神经元	-19804
铸币局	-19805
ould	-19806
▁Can	-19807
吏部尚书	-19808
的电视剧	-19809
西班牙人	-19810
弗朗西斯科	-19811
是一名美国	-19812
是马来西亚	-19813
PV	-19814
不住	-19815
书局	-19816
会展	-19817
制程	-19818
北角	-19819
区与	-19820
升入	-19821
异名	-19822
掀起	-19823
整备	-19824
时钟	-19825
景色	-19826
深感	-19827
男单	-19828
皇冠	-19829
皮革	-19830
诗文	-19831
赛和	-19832
MAX	-19833
▁本种	-19834
不相同	-19835
以及与	-19836
俾斯麦	-19837
后开始	-19838
多姆山	-19839
孚日省	-19840
将他的	-19841
扩展至	-19842
的长度	-19843
的飞机	-19844
▁是一部	-19845
如果没有	-19846
成员包括	-19847
▁Records	-19848
一二	-19849
亚运	-19850
割据	-19851
地底	-19852
大山	-19853
字型	-19854
巴迪	-19855
并购	-19856
戒备	-19857
投放	-19858
换成	-19859
据此	-19860
沉淀	-19861
海中	-19862
消毒	-19863
演义	-19864
由前	-19865
秦王	-19866
粉末	-19867
红星	-19868
脱贫	-19869
调味	-19870
量测	-19871
面部	-19872
额定	-19873
alt	-19874
omb	-19875
▁No	-19876
▁近年	-19877
不断地	-19878
专辑的	-19879
人口占	-19880
匹兹堡	-19881
并重新	-19882
显微镜	-19883
犹他州	-19884
的一大	-19885
种类的	-19886
莱茵河	-19887
马恩省和	-19888
其范围大致	-19889
Ol	-19890
Sk	-19891
全资	-19892
内设	-19893
准将	-19894
劫持	-19895
号被	-19896
和下	-19897
大分	-19898
大雄	-19899
女婿	-19900
废黜	-19901
扶手	-19902
搜救	-19903
搭建	-19904
时分	-19905
检疫	-19906
[...]
